#map = affine_map<(d0, d1) -> (d0, d1)>
#map1 = affine_map<(d0, d1) -> (d1, d0)>
#map2 = affine_map<(d0, d1, d2) -> (d1, d2)>
#map3 = affine_map<(d0, d1, d2) -> (d0, d1, d2)>
#map4 = affine_map<(d0, d1, d2, d3) -> (d0, d1, d2, d3)>
#map5 = affine_map<(d0, d1, d2, d3) -> (d0, d2, d1, d3)>
#map6 = affine_map<(d0, d1, d2, d3) -> (d0, d1, d3, d2)>
#map7 = affine_map<(d0, d1, d2, d3) -> ()>
#map8 = affine_map<(d0, d1, d2, d3) -> (d0, d1, d2, 0)>
#map9 = affine_map<(d0, d1, d2) -> (d2)>
module attributes {torch.debug_module_name = "SelfAttention"} {
  ml_program.global private mutable @global_seed(dense<0> : tensor<i64>) : tensor<i64>
  func.func @forward(%arg0: tensor<10x20x128xf32>) -> tensor<10x20x128xf32> {
    %cst = arith.constant dense<"0x955C713C3EDC7ABD60FD5B3D80376F3D086B19BDA9F114BD7020F03C3E455F3D527F87BC63A8F7BCDA29A83DF9E2113D10000E3D7B1D6B3DAC91823DA491A03D937571BD8DDC9BBDA75FAF3D46FDF93C1259683C7144B8BC5F8B233D9C2F3BBD83AD23BCA4E3913D5F31B4BD8B5037BDAF73D13CA7EFB33CA2BD833CF17D593D09539CBD246696BD5448F3BC36422B3D8F5E34BC9147253DF65C9A3D4640883C9B562D3DC473613D15ABA73D64BF963C3FA0C23BC2CC733D0B8A6B3D0022193B041C6C3B023202BDD500FEBA38D859BD471B0FBDDC75BABB22519CBD57BE7DBD52E9163D9D77523D4B79D63C94A8E3BC24F7553B28F53DBD8C0563BC7F2355BC9C7B3EBDAADB29BCE312853DFA524CBD89BF44BD63B4AFBB4F5079BDCE18BB3C9797823D4932B1BDD637933D3732243D3871563D9DBE67BD19D45D3B0CE206BD900FA73D2C1018BBBA8BADBD9C3537BD6D08A13DC0C4723D1B77ABBD51B2493D508A033D6009F3BCB0AFB43DF5962A3D3B136F3CE7A426BC126799BD3175DD3CA9E9143DEEDC8C3D80EFA9BDFD5A453DF7F0293C3FAEC4B9838DB03D93C985BD345987BB53ED24BDF06805BD126D0B3CC3132B3D90E7A5BDB3926EBD7DC63F3D62F30A3DB7CDA63D97B17DBD93137B3DC19F32BDC2608BBD2E23D2BB430CD73CDAA1853DA6DF5E3C276FA23D0A2DF3BCAD5A0D3C6A3D97BD51A6AA3DD4203DBD4AA7D03B5D21A5BC8010A13DB62E7BBD57D5D83C174D343D2A98AFBD74CDC73CDE12423D283719BD8238953D80804BBDFB5B24BD4BAD1CBDA29A9E3D72B2A23B1F4D45BC21A0913CFF2DE5BC3DAC7C3DB6AFB33DBCBB683D0F1528BDED8A3BBD9F5CAB3DB78991BDF3FAA13D1D6892BDE50F0E3D0145B2BDC11AA83D3100B4BD4CC147BCF0B6123DC0785F3D8F2B273C259D3B3DED232FBD8DF61DBD92F83BBDC4F5673DD4813A3DE4569C3D3B0C803CEF22B4BD9C5C5D3D7E03633DB2DF0EBD08F8AB3D828FB0BD86E72A3D7B7A773D3BEBA1BD289D813D9CC1803D41EB953D40D4EA3C31FE2D3D7026B4BD5D74F0BCD90F10BD651A5FBDD0DC77BD23AFE43BAEE5E73C792738BC3CA92ABDC51C72BD8C3B363C6426E2BCAD6222BC9374A23D4EAD2B3DD2F967BD56986CBC1CC08B3C3FB1A53DCE085D3CA0CBB43D0A75B7BC432C193D59CAF73C98A8883D4C952B3D45901ABD8215383DB992203DCD6F3BBD232B133C5B10C5BB64B0B33BD86ACDBC3224743D23BCA8BC9FB9233DB5448E3D180D673D612D32BC2197E6BBDD3376BDA93C213DF277783D179178BD33B78CBA238B94BD43CA863DF20A183DC690693C191ACA3CC589453DDA5822BD5B4C2D3DC725B2BCC58F8CBD2CCC7BBD7D9983BD10BFB33D57E5893D148596B954187FBD2A98AABDFE8C913B9C41ACBDAF271EBD1F2697BB926B28BC9C5D32BD1DCD80BDD623623D5D5B083DBAAD6E3DFD86ADBC6D2005BCACFE473DA7F98D3DAB8F83BDC4D71E3D4EA3683DB9DA9E3DFFCF7DBC673990BD4E73A9BD508DB93CDD2713BD3630A93D22B9E7BBABE4983DCEFF553B9872E83CE5B8E6BBAF458A3D39D1A73CBFED30BD71BA953D51C493BDE4767FBD885EA63D155187BD6EF3D53A8CBC493D32C3E1BBA33FB0BD1CBF84BD82027ABD85772D3DBE2BF63B1C4F76BDBCB5A6BD7DDFAABD5649C2BCD950A63DF3FE6BBD3950B03DFF73A9BD8DEDC0BCE000A63C6B249C3DED6FA23D011DA73DCF6B6E3D9B37F2BBDA60933C4D1630BD778182BD4469A4BDFE6C863DA9000BBCBFD7193DD4B956BD7D3690BB52E4913A6BB277BDA9DD62BDE8B0DB3CF45D103D13AEA5BC5F928FBDF9EF9BBDE015F03C65419DBD7C547B3DF84722BDFDEB6BBD3B53303D00AECDBB1F3262BD3E5B99BD0E9EE4BCDAD1E83BEB236E39AF93E63CA8341CBC121F2E3D8CE8073D4F3838BB0B7622BDCB31313DF7CC7CBD866C493BE38D2EBD96A6933D9E0E4ABD5FE0BEBC7F733EBC008F0D3C7FE7AF3D4E4FA33DE9DBA2BDD01C593DF214513D46155EBD3BD1B63CB39E98BDF01A2E3D38FEAB3DCD0DA23DF3E84E3DFAA31F3DEF94DF3C9951303DE8BB98BDB205F13BA0860B3DFAFAB23D6F9180BC0CA48BBD2BAB043DA779253DA92721BC117EEBBCFF037FBD358FF9BC2E7F9EBD0FD206BC0CB03BBD580BEEBB54D6663C156873BDD10BA5BCAE9437BD551F7D3DD3A3973DEDC5243DCB41313DCAD9BD3C3ECE6ABDD76377BB657352BC75B766BD657FEBBB4BCB5FBDDA5D213D07EF5E3D32168D3DE089223BDD554FBC11958F3C69FF563D4E2DA33BFFC8B93C41C60BBDA4C207BD3533703D305E48BD9E66EC3B9F00303CBFD9A4BC945F89BC32EC8E3D69B599BD6116623D93CB363C7465293D01E462BCC8679BBDD5B413BD4739AF3DB6B392BD1139523D86B4043DF9A4ACBD3A048E3CEBB98C3C31592B3B2BC6EB3C4D9306BBFDCE27BD7280A33DA04DF03CABE39BBC9E2078BDA96AB23DB8A0D1BBE11FFEBC2E2C853DB8580F3D152BA23D5CA975BD424435BDC2DEB3BD1D7574BDCA759EBC175BA93D457A8D3DD82F32BDCAF113BC9CCD21BC7108A6BDC32284BD796C4A3D671C96BC43F0783C0BCA7FBD1188ED3C312F693B9192D73C0183393D198B9A3DBB6696BDEDB3633D35762BBD540E8E3DCCACECBA33D323BD9FC13E3DBCC8E23C6B988A3D7D5D51BD692421BDD48C1F3C8AAE14BC0F24C2BC354EBC3C34B112BC0D7380BC029CC5BC64ED4E3C18424EBD9B5818BDB7E220BCA33C87BD3AC6843DF2013DBC55F0AD3D053089BD57E3B1BDB9E8773D6D1128BDE009AD3DDE61A23D7B426B3DE06A633DEFAA3BBDC1EBE73CFD3992BD195BA7BD347B9FBD09A7883DC598A83D416457BDC78EABBCBA2B7D3CD78EAFBD0F6DA23AFDEAA73C8FBB863DFD5B59BDE0DC063DE7A3D53CBECF7B3D5D07EB3A9078223D69A139BD0E651BBD67B50E3D3485ACBC1EA5B83BB1DD823D0BFF0DBD43248EBD98A6493C2F34A9BDE611B43D33BE093D38C32C3D167B1BBCEDDED9BC3E331A3DCE589C3DE93F1F3DAD4AA33D4964A73D89DABABBD42733BB672AEC3C7105A2BD4B6A013DCF35B13D149A773D3A66A6BDCCA58ABDBE1D74BD5602F1BCBF629B3D1570AABD32A3BC3C8B1EA73C96E9B23D704F0FBC0B9034BD08041C3DCDB7FDBC4A57293D086285BDB7FDAD3CC0D409BD41182A3D87CA6E3C2179ABBD05EB36BD50150BBD977C6A3BC04F85BD14C270BB8632EE3CF27F843D11C6223CF3E47C3DD9CD2CBD671F693DFA13FC3BFC5F29BD1B722B3D00163F3C9F8F413D92123C3D7DA1F83CA2339D3D22BBAD3DAE244A3DCC477C3DB2C85FBDAD22A03DF3C8B1BC879428BDE89E8E3C813DD9BBD9F5F13B78E6533D8730633D7BA1F53C16378C3DFEB627BB30A53FBDADB3833DD5B294BD9E0D8E3D1C92AC3C907A823D90710ABD69773C3D240D8FBD8097AB3D9954423D027B693DD11F4F3AB0A2A03D49C5C53B9C6C9CBDBE8F37BD6BFCA9BD91DE303CE47FAABCFDD14C3D45FF213DAF9A383DE60F59BD3D18A13D38CFE53CF0A71CBD3C9868BDE1CF243D395CABBDACBB133DFF7559BDC76533BDAE3091BD3CD8ACBDE55CAD3DF6AA853D95EEA63D749EA7BD206BD33C31A06A3DDC8AA9BDE17D00BD3CCE39BDDD39A7BDC77ED1BC0DB01B3DF845EA3AFB1C9DBD2AE364BDA5E0DABB5F7DA83DA833F13BFE2B1C3B549FE63C3A68BA3C21633B3D3EF091BD209AA93A5748A6BD0C26F53CE92DAA3D7E9C3B3D51962A3D6A378C3D502F7CBDC4CC653D4E0601BDDA0F853C37E986BA6DA718BD3A99DE3C39DDACBD9AD5A1BD95248DBC0A187D3DF5A5BCBC90128FBDACA59A3B5EE8343D3B3FC4BBC77EC0BC118B1A3C21E68F3D0A9DE0BBFE8DA5BCDC031D3D246F953C77485DBDAF41A63C9F4A783DD2E59BBD0C1A88BCD8CDEEBC1E793D3D89792ABDD414503B7A4E1C3D8F9822BDDEEDAA3D44A87DBC923484BDE223793C77078E3D00992F3D9F3AAA3D5BE891BD2B1C36BC34A8BDBCD4F0003D9F2E98BC3D7F493DCF7D073D7330B7BC640F333D6602043D11D2A13D3BF1983C2B6ED43AD701A8BD5648853DE4A26D3DD38BA5BB66DA3DBDF88B29BDD1E48FBBC354643DAD66A73D25C6703B88A5903DE8A5ABBDC7A73A3D4F03BA3BF1AA5FBD66559B3DDAA4C4BC1598893B1697513BF0D3A5BD2A43B2BD858483BDEA7B9DBC637897BD2A389A3DE365533CD9A9483CBD57BFBC56896DBDE30F4E3C64C344BD954EB43CAF4CB83C005988BDD2156E3D4651A43C643D9C3D75BE1DBDB3F7993D3A8A963DD6AD98BD0E51DA3CC76EB43BD8AC8FBC0801EDBC2D58A83D9C8D203DD0A5903CEF03A4BDCE9718BC492E9D3CB47092BD493A8A3D9F0FDF3CCC73FB3CFF772B3C7865A13D7ADF513CB9D7B23DEF18AABD752BC33C9B0A1A3DF0D60B3D06C6893D2E4444B873472F3C2DF929BDA45098BD1CCD6FBC151EA7BB8DFA843D1B9C4A3D952863BDDA8B86BD4BEBB0BCB70154BCB531613C2417C93AEEC078BCC8F8E13C8B6381BD75B23DBD728F3FBD16746EBC05BA77BD81278DBDEAFC85BD5EC5943D8BA46ABBDE75113D6FD4A1BCFAF7993DB37A89BD6493993D0B55BBBC2F81A03D383316BD08691D3DF2C5CA3BB5960E3DD829B23C7A0A7EBD38D51BBDD7C80BBD5F4CDE3C66453BBD9E9B8DBD008583BC5135973D5D6A37BD15F42DBCFB5EF73C58B2ECBC9DF32A3DD25A4ABB7BFA72BD03CA2A3D2771A23DCA836B3D7AC566BDB3F5393D14DCAABCD68C6E3C9FAC0FBD9CA161BB022C97BD7D9F7C3DF81FB0BD3A5F223C4ABF0ABD4FE783BD6E655A3C1145E1BB3DE33BBD714B2EBDD6BEC53A745C2F3D363E9BBDA0D74C3DF5F5B63B51BC4FBD1567263D1F4B873D34A2133DDD7392BAACFC8BBD589C913DD18CAFBDAF81B63C2BE4F5BC69D07E3C1EA1C4BCAD127C3DFA8E5DBCF467EABCB262203D0BE4A8BC4659FCB7454C69BC2D97F23CC28947BD7724363D78988BBD236E063C2E80B6BC0128403A0795C53B9833ABBD6E1A2C3D994AF0BC6B98FE3C64D72FBCF1B2853D80E1CEBC02D09EBDA11DAFBDED8BABBAF3E17BBD64F950BD68BCA0BD8C86B3BDFA5632BD21840F3DEF194EBDBD58CF3C52D9603DE87F9E3C077F6BBDA159193D75DFE53B713574BD54560C3D69128ABB287BB43D296DA63D77BD473D316BB13D85B392BD26EE96BD12D56A3D0B2E343D5A9DBE3B531BAC3D1C646A3D6F07813BD12CEBBCC6A9823D11F0963DEF4F483D648405BC564291BD1A80AF3DB3B5A5BD826F4FBD4175ADBDD99291BD27C027BD5ED3863D2FB4693D16A6383C574357BD934F6DBD1C9443BCC92BB1BD87A267BD273D483D1CFEA33D07D0453DA54579BC2CD7D43A78F132BCC5468CBD9C3D9FBC7AF008BD8FA1BCBC2110683DD19972BD932B183DC1E18EBDC12374395A83293D170E8C3C5467523D7BA583BD80C181BD4364C4BCD801C0BC135A123D4868A7BDBEF6A1BD00EEAA3D3C8B703CC41AB4BCEB4F9D3CB0294EBD4DE20CBDCDD981BD22EFD33CEF3A83BD0895013B8D1BF93C9BF6B9BCE8E99DBD442342BCF3BF32BD9DB0D0BCFF8E9F3BFD98703D3AEBAB3DF4AAA33D780D8A3DCC9A423DB19050BDF298A23DAA4541BD97648ABC8543A8BDFFBE483D95F11DBD7A7C4BBDA52D083CCE62AC3D2B33D4BCB94448BD3A9C203DBEDD443D18ABA53DE3CC02BDDC7C0B3DF8849A3BAE6150BCEF01F23CBEBC4E3DFF848CBBFFCC113D446CA63D510115BC3A7569BD0C449D3DCABAA8BD1023513DBC1CA7BC63BD88BC83E170BD8F1427BD06C97BBD38B4643D8ECE7C3D625812BD7D6336BD3B0AA4BD7125443D6A549B3CB3D95F3D59124D3CC96E373B5B1AA5BC0E8166BD3E3B803DA461883CF1E8A53D2774553DC6CCDBBC801A0CBDFA83A23D8A6CB5BB6CE3F0BC99D9873D262C37BD342496BB41F51C3CEB9765BDA04A04BDDF58FDBC2F3A2CBD13FCAEBD020DF13CC5509FBC7E50803CC882A0BD088E1D3CD77EF8BCD2FBD23CC15294BD885299BDD49CA7BBD0AC9DBC2B4941BDAFEE7ABD56EECF3CB8C9A0BD342494BDBE11893D1DE5943DCC7E82BDDCFE803BAF45023D671AFD3CF27363BD90A0B1BD0A724FBD7EC38FBC7FA649BDDD7DDBBCDC4E803D2664D6BCF87480BDB9DB113D7F3E6FBC2404553D530C3CBD0A9F8BBDABE0853D9BD7083DED7859BDD27E343DE5D38A3D9FA84ABD9C22453D84A5C43C4E2637BBBC09953CBA6D3FBC0EB9063D89C6AEBA87B1A43D97599D3D1A55733B3D1D9C3DA63D57BB924A693DA7F5393C4EE83EBD11018ABD984ECF3CFCCC8D3DA8CA69BD265E2A3D49DB89BD7560993DE2368B3D0E94B83BE0CD88BD58CCCCBCC0AE643D701801BD0B26BB3C11B2183DD5CA953DEDA00C3A4F35CCBC033BAEBC38F6BBBC7D4FA8BD0076ACBCDE950E3D915B963DA13A123C7A2AA43D2A5FABBD4E35513DCB88FEBC9608843D491B8C391C078DBD27715ABDBD198FBD8D68A23B7900D5BC34F3EBBC78CFF43CF8B989BD36077BBD5663A0BD6A599B3DB73A1D3D7E23A2BDEA2560BDEF70E4BCEFF11D3DF7466E3D4A45FEBCF2E33FBBFEB63CBDFC9FF8BCE99F213C24087F3D69EB853CEA9098BD115844BD82CC5B3DB96CA63DC1DF5BBDBD3E713DF11A75BD0AC372BCE20549BDBFA0FEBCDE7F7EBD84829DBDA89E6CBC83CB593D66F08EBCAC3B9EBA4A09773CA5B3253D072DAEBCA7AE253DC0F0C53C8C8794BDF73284BDED2793BDA206ABBD6CA9FCBC07B074BCB639233DCF93523DD31F9ABDCD7E31BDCEE495BDF9F7A03CF4CC4EBD3D04F93B2BD89DBC4559823DD504AC3D409F8FBD7991EABC7A2E01BDCF98AC3D6174B63B0F648BBDD09551BDFFD8C1BC6278033DB8ABAD3DC2D1F23AEB36843D9AEA3A3D978513BDDFA335BBB03EE8BBB685A6BDBE2C183DA72FFA3C538A14BD58933D3D728B19BC23FDB6BCC1C1E23BF2E113BDC32E873D05CB8ABD7AEC92BD5414743C14C30E3DE0C8A63A1CAA4B3DCA75A9BDE30682BDBE0A97BD90FCB33D60DA1EBCD9127FBD608E843DBA7DF93C7D181BBCB8C48DBC462FADBD3C72D4BBCDA1013D32775ABA80F93BBD5676A9BDC4B910BDA30CE43CD48282BDF193173CD1C75EBD9D65A23CCAA71D3D2C09ACBD9BFAA7BDAA67F33A68BDA4BD2E4A653D52D63F3DF0EB9ABD44787ABCE45499BD5B809DBC832D9D3C05E2633DDFDB893D0A743C3C228C4DBDAA1685BD919818BD1EEA7D3D057C703D23D636BC7192AC3D84F028BD1FC17EBDB05C0DBD880478BD04D29BBDF63326BDB32A92BDBB9711BD26A3A63D359A58BCEE9D28BD9BFB9B3DFA71A9BDCFC5753DF2B4AEBCE740863DF1465F3D9AA088BD9CBA243CA8B9883D8D2AFE3CC80C033D4D62FA3C405C8D3D7EEE68BC25570A3DF32C063DCF92A73DD4F1ECBCE871233D2D989CBD6E9B83BC0865693DDE1150BDA708993D6CFD433DB7D9803C5405823C27C61C3D49F63F3D66AE8A3D120561BC071B583D3F3787BD78E657BD18A0A73DA37A4A3B1C23ADBC940019BD548F23BB6836D6BC421546BD1C1426BD86F6A83DA6AD1ABD0D6AACBD4C471E3C13CBAEBDC7F09CBD17FB0D3D5EECCF3C2A3D1E3D01D14CBDDC2E913BA2815DBCC7257ABD19688ABD9AF5B23C93D00D3D4D410C3D2BCBABBC0770F5BC5F3481BD96DD843D19751FBBF810843D74B898BD4B76A2BD2B1A2E3DDF75473DB6D299BDA76768BC51AC493D5CAA88BDE04AADBD137E09BD212D79BD342F02BD4D49993D3D66FD3C42F584BD4A0688BDAB43C0BC20DFA33D2FD158BDEEC8703D946EAEBD96BC53BD5DBBB9BB5FE3833D68FB62BDA16F713C8F62923C342A573C59D7153CFEC4973D43ED923CFDDF19BD28E4963DDBFA033DF7F8933D45B1533D23FC85BC64186ABDAD53143D7054EB3A54D01ABD2FECA43DDE5309BDFF287B3D46ACB23DB2B3AE3D5DF68ABD6E7A3B3C81EFC3BBC27E443DFB32AA3D6B4073BCEDCAADBD40B58D3C5CDC2BBB07929EBB512F03BDD263A7BCEA6CDB3A4F734B3DCED89EBD82E0393D66C5DA3C640B8FBD13FBEABC8A1164BD6D82593DD6B8A1BDD88644BDCEBC92BC3C093EBD2F044F3DF07AB7BC18D8A3BD10B11CBD11C41CBCAC4A9EBDC7FE0BBDA200FE3C34B2CCBC2C229ABC9FD0763DCBD6C8BCB8CEAA3D3600A63C290CFBBC95DB89BD6EF58BBCC660573D7CA623BB1FA58ABD529C3A3D4E7F8DBD4C45E3BC094EB73CE1AB98BD5ADC863D8DD510BDB238EDBC50BA95BCFD7722BD07D4813CBD711FBA444158BDA6F73A3D88DAB03DE44A2E3D84DC83BD04A1213C209752BD13B86DBD789ED93B6D45553DC1E35DBDCCD0A53DCC73EABCA5F4823DBA2B3EBD0A7B52BC4D7698BDDC6D15BDB646E33C7F5AD5BC24E8AF3D3C8C8EBCD815673D225079BD2899A63DCEBEB03D89F33D3D8A18A23D4CF6063D441402BC92FDE63A85DF853B0F408F3B5F5168BD3793863C43003E3DAACC3D3C5CFCB0BD50051EBC6D14853CD7B9673BED2865BD833259BD293E8BBCDC6298BD557F9E3C6A11903DAED896BD9BD9B4BD60BB6D3D7E6CA13C51032CBD58A3283D5E97ACBD900622BD4BB5C43C6D648C3CF1498EBD6FB979BC020D953D89A2223D997CAD3DE33D9ABD4770ACBDAB523DBD35738CBC772D5B3DB59157BCDCAE233DAB850ABCBEA50C3CC670FA3C6E3E4D3D5FF5F3BC2329A93D9D98A6BCD40C26BD7B97B03DA9708CBD5CDBADBDDC0BA13D1F078EBC949029BB821988BDE06129BD4F598CBCCE33FFBB69870BBCD8D425BD4085233D726000BD07B3AB3D9FC2023D4327D33C2C0623BD7392843C7286C93C5F36263CE2EB9ABD76BF3B39811F41BD010C8DBDBC6ACDBB2EC2023DA163A1BBDD8B933D039464BD8B19A1BDD4F78BBD9959F9BCEF18B2BD29A9643DECB4A5BD28B1AA3DAE71D0BC3E526EBD1651A63D30AF9B3CA6D683BBA296093DAE8A9BBD0E6599BDDF13A0BDAF83A9BD242270BDF9C3993C7E30FABB4C0A90BD57939BBD60CA5D3DB50E193D965440BDA63295BD62B131BD1EE7B33D4D8E4DBD8620963D59BCACBD0761DBBCEAF096BD952CB73B95A7A0BCD7ACADBCC20C01BDCAB6063C4A3CD93CB4188EBD8B9ED3BB7A3C313C07BB533D432925BDCF9B873D019A07BD0A7412BCECF147BD02D651BDBC6739BD77C244BD40C589BBE67A363DFA9EAF3D8900A3BD7A76153CC076823C148DEEBCF07962BD8CBC8A3D03ABF8BCDE059DBDA02A4ABD1AD615BD11E800BDE89C9DBD67DD243DB2B161BA6244B0BDF02A34BD2C97773DD12A283DDEBC71BDF542933BDA772D3D9147BABC733E8B3D9C9C9ABD9CBAF0BC32AB873DE0756EBDC8B6E03C206C1FBC6A2AA13D93BDB33DB2CFD6B95329923DDD1A5C3CBA779D3D1FE6D2BC74B3563CAE3796BDEA5B3F3DB8889F3DBB33193D571C953D0362933D9C15873DC4A1833D9E1360BD58F8913D2E5C84BC8A97F9BC6A09743B3F47DE3CE78373BDA67B9A3DB0EDE5BC9C3B9DBBAE45E63C8C11763D01B493BC938594BDDC0BA5BD541053BCCF6B9C3C8C511CBD1BA1A4BDD423423DEFF08D3C6FB08DBDA7D4353D4B06CB3B7494A63D20F352BD7607A93DA1C2863DFB9A9D3C49B1813DD0A3A93DB95BABBDEFE7A73D898D0ABC5FCB76BD27D706BD9D87493CA00675BD5D8B313C781F1DBDD197883DE309983DAED8513D7CE129BD32A4B23C802E2B3C81C75F3D6EADDDBCCBC498BCFE70EA3C7EC660BDC11BB3BD89BE3BBC2952863C7D4BEFBCBF7023BB8AE59E3D2751173DB03A353BA122503D826184BB7EAE6DBC7952D1BC4174173B8E4D32BC4757DC3C88928BBD587D97BDABAFE4BC42224F3DADDBC43BEEA19BBA8A35B2BDB72674BCAF9C903C6B65993C1FFA973CD6425CBD5481343D769D44BDB4CC143D14CC91BDA9C57EBD1B4FAA3DA74425BD978A98BCD7BF71BC2317393C4C7D25BDF7B9C23AA58690BDCE890EBC1EFF5C3D95C481BA99280A3BE3307F3BE99C983CAA75293CFB49B9BCB0A38BBD9DA0A5BD358ACC3C09C796BD6E9FA03C3144A1BD04FF86BD371D153DC5FF27BD32BC273D9C94513D04539ABD489B893D76A76A3CE618473DD8D0B03D4836633D483ED0BC4D3765BCDA335DBC4C3DA0BBFCA995BD43500EBD292BE23CDA9C813DA8CB683D3C727ABD6A29C9BCDDB1ACBD1904EEBAADAFA33BCFE4C7BC63CA9E3D13BB3F3D36DEA8BB298D8EBD7CD80BBD9EB524BD9E49903DC02DB1BDFC39AC3D01C97F3C26B4113CCC384F3DE803F53CB018A33C70C952BA4723B33C4C74B1BC4A426EBD838D083DB3EF15BBDD1619BCF910943D2940153CEF1A98BC1CD0DFBCB9644DBDFC8E21BD210D2C3DF4AD233D3858953DDC779BBB97A4B33CF8FC7C3C3CF23ABD75C882BDDC6BAABD73EB4DBD5E6B703CD1D057BCFF5ED2BCC3FD5FBBFB32823B33EC2A3D85F0413D58536B3D1BDBE9BBB5841DBC71D992BDCEA234BD431BF53C3A654A3D326124BDA15578BC275ABA3CCF62A9BDA6F2A9BDF08467BC4915B8BC7D0184BD86049ABDEEF28EBD5C9DB43BF78C3E3D12D1873DAE1A663C9019013D926E03BCD71D0DBD0CDD44BCFA65F0BB2991733D5D2C853D87B2E23C8A8E94BDC0CB8B3D61AA8E3D0E68B1BB6CBBA1BD9B0F9DBDE3E61BBDF51D49BD0A6FD23CC1B7B2BB14670CBDC512553DB51905BD28D2B7BC382B9E3D5BCA983DD6439D3DB30C6D3C5325AEBD1DE7B03D715D0C3CE6E128BD26D6E6BB6361643DFB93983DD153CEBBEF81633D005646BD5222AE3D39F9E13CA1DD913D4083363D61D825BD0330BA3CE30A5CBD8B9919BD85103DBDBE036A3DA3F431BD87E2553DB83DB93CA7AD4E3D75AEB33D766A1CBDC33AB4BCD9A00ABDE5136CBDFEAF65BB4CB7E33A4B3B533DF490993DF2A439BDF1091EBD2CAD123D33E6713C69878BBB75419DBD45194CBC716B453CE6DBB23DD82080BD5295053C6EDF4F3DFFC2483D69EB1EBDD5296FBD2F7385BDFA7CE83C4355333C942C813C5A77F3BC40121CBD147E1DBC2AEE19BD61F76B3D22C826BD09C8A23C31276DBDE094833D2BD3533D88E9AE3DBB8B9EBD0D761C3D019745BD7A31FC3C9119F4BCF751A1BDEA4BF23CC8CF413C7A1C9F3DFCA4A73D9FB8003D195F9CBD3721B1BD00DC023D2AB572BD4AE7B13C718BAB3C226BBC3C974E973D4BF7E2BCDAAB8A3DDB0D8EBD3D4680BCD62F0CBDC4A420BD07C55D3D699BCEBB996CA6396F1C1FBDCBE244BC85BCB73C4D560DBB19A8C9BBBE08843D9FDA69BCC4193DBBFF49CBBA503334BD9CCA52BDBDFA2CBC40EF9F3AEC3F4D3DBD481D3CBA23E0BC5EFBA2BB5B46DBBCAD5BE0BC60CA88BD3934953DB32260BDEF88AABDDE5F87BD4E97A7BC3E13A9BC74156CBD6B7B8A3D574F503CFBC6513D344863BD51D388BD7D7082BD0E59B03B0EC12E3B0BB372BDF32303BD689D9BBD3401DD3BCFC3DEBCF7429EBD6EAF243C79E4373D6906863C0B5DB03D492F68BD4E5D35BDA56FADBD4E1E7DBD58FF52BD33F76E3D256BA9BDBFC19E3DFE649A3CF8F3F13C5DBD54BDA620503D98DC82BDCC8BA63C81FDAB3B7B529D3C4C19033D9FEB093D005EA03BBAF34F3D955C8C3D63981B3BCFB1873DDA7596BD748B863D1CEB3A3D57829D3DB1629E3DC9FF8D3C8B33E93CD716763CB32E92BCDB2182BDBEB0D9BC1C2C9D3D3DADE43CC8AFD7BC8C5F8B3BED9CAA3C1043D33B91F9133D923A28BD7B1A96BC3EE555BC3EB242BDA02C113D573E30BD46F8A83DC34B6D3C2000B33D8E190BBDCCB644BD223CC03C034E3EBD67AEE93CC3C51B3D6F3059BD0046B03DF58B8FBD337E41BCE5296EBD187A3C3DB61D813DC144CC3B81AA953D7A49DEBBADFD5DBD25461EBC0CAFB0BD9960223CBAFFDB3C40AA7CBDB0F685BD7F8B31BD2E189D3D37A489BCEB85B1BDE442933C349B473D574AF7BCF75E1BBDE8DD603D6D9185BDBA4B63BC0C3F1F3CFDA5DCBBA4E4413C15B3873D2AFB513D8E5FD5BBE05261BDCE7130BB443B133BFD3FAA3DC90910BD8D9CACBD2D4C7BBDB35A043D461FA7BDF4DF9A3D403ED2BC46230C3DA52AB13D25AEB23DFF0E7CBD21AD84BD89CBFDBC057844BC3DA0CCBB783B94BDC0EF53BD08F37F3DC8B976BCADFE513C97CCDCBCF2D2A4BD5B269EBDD4FD0FBDA5F6ADBC6C81AEBD40FAA2BD8FF4883DFB4D8A3DE8AB54BC14DF273CF477B03D3A7FA6BDEEC48BBBD39BA7BDA0F7AFBDF5F30EBD8F8DB4BC1719053D4BBC343C183EADBDA14C05BD7F0D53BB2517ABBD9BBDCCBCCF37823D22FC433D72C400BD4ADC97BC7382AF3C7D2821BD38184CBD6016583C9C1DB3BD0BCB753DB11584BC04FB473DE0AF0CBD8C2D56BCC4C3923C7E7A293D82D611BD9E361D3DDAE252BC8F9E003C6D87D83C0EAFD6BCFCC8313D8293723D3D14B43D6F2B8F3D9F297E3CBDF7A6BD946684BD52E94FBDFEDC70BDE8BAEA3C33F6CBBC147280BDED9A1FBBE1E58ABC9B82F2BCF6B519BDA6BF393DE8B9973B671807BD97DA9FBD052CA8BD0956D0BC7FE9183DD3B69DBBB074323DEF20B23D32BBF2BC88C59FBA689AF1BC5414B53BF8A4D03C9D6DA93DC6F7243DC25256BDB33097BDD4631FBDAB9319BD8C7E98BDC0BCB1BCF8AA0C3D57478EBDE06086BD4C7E943D38BA12BC45F9543D221B05BDDD4581BD0D850EBDF29F5E3DCCAB49BDC2A944BDF45C84BDE18D5ABDD37190BDEAFF2FBDFCBC6CBD35498FBD5127803D4F4B283DE55B563D8BA614BB87AF61BDA33FABBDA5C16CBD40847FBDFCD18FBD4B7D003DE55BABBDBE04AC3D803887BC5151263D4DF0D3BC36DA81BDA1BFFC3B768177BD47EE5EBD5E9E443DD99396BD7B23303D87A17DBDD98DF33CDE1E7B3DA7DE56BD6E811ABB163533B878BDAFBCE5413D3B008D9E3D33AE813D0FCF9A3D04764BBCA7D04C3D9D9292BD7DB792BD7C409BBD1DD5993DEC08AA3D1FE8083DDCDC9CBB6EF3B0BDA987A3BC0F16A53D6EFF2FBC83DE9D3D88188D3D32F280BC61399B3DF439953C0FD2A33D67CC4DBBB1AD14BDB16647BD7200713D938B8DBD130A463DD1AFE13C872B823D0E610C3DC07D83BCF31A00BDC32957BD291DF1BC899FCFBBFA12773DED1E95BB8B71963BBC13BD3C54F4023D7E3AB5BCD41697BC636F943D8342CE3C7F4537BD2122483A65E02F3DEB2B8B3DA0C54EBD85993BBDA990D0BBFC598ABDCDF9B3BD63078C3D139020BD060D9CBD481B80BC46DD54BD752D9B3DA12BAB3D7DAC83BCED7EF03C6DD750BD52F7EABC795F58BC8B364DBD642C833D076241BD327BAE3D2F22C23CE95CDC3C78D08BBD120787BDF64F2E3CD8DE6F3D00BE483CA831AF3D7B8E573C2D4877BD51B333BD71E60F3DE61251BC20709ABD3D8DA23D26D54ABC5519B03D78D694BD4849233DF747473DBB52A03C220031BDBFC3D9BC6C2E77BDB704993D8FC991BCDFC0A63DA890AE3D35643C3D408F8C3A08F0923D40041C3D68D356BC7386F23C7D97A53DAC504D3DBE8790BD3977EA3C62A3893D0E5B52BDC87732BDE0F954BD90901DBDEF7BA63CE6877CBD57D5EDBB559AF3BCC0CCAFBDD9A307BC4579393DB72B733D7BC20CBD732A633D33452A3CEE7C9CBD590328BD9131B2BD2A3F333DB94B793DAD399D3D8268763D11DB90BB7867A0BD0C58F6BC7AF7653DF2B8883C1FD3CD3A29A2B73C9BF880BC491390BDCA90A0BD4B74CFBCBD67A2BDB06B9CBD9ECD9CBD8EDB44BD5CB843BD505B253D52DBA1BD150BAABC333DA83DC8E42FBCD272B43D2009A03D39DE2CBDD1397F3C1A1FF6BB64D038BD79B4E63CE85F1B3D848291BD5BA2D13C51411C3DD133B2BD1BD629BDDD99ACBBB41468BD9324ADBD410564BCFB703E3C1F87013DC2722BBDFC368CBD3AAFCF3C65159B3B584298BD06E0943D2DA7A23D7280233D18B4A93D34DFA4BB6F972A3DD98FE03C698B4EBDBE04B1BDDA03843D3192ACBD92C4DC3B5B7E23BB292F873D6BC6953DF5ABB3BD43248E3D52B8B4BD5B9BA73DC9F385BC2563A83DFBDD5A3D78DE2B3D53EB61BCD17F163C79047BBD71C2843D6F84BCBC0C70B6BA77751ABD7312A93B2B71793D2C8DCBBCABDDA8BD2D3922BC7D00B13DAB93843C35D13BBD22443C3C92F076BD21E490BD442FC63B1ED1823D867F4ABD551FAC3DC7894E3D9D5955BD5D74A0BDF3DB103C6E1BA3BDA0890CBD7F66AFBC95D203BCACA2103C3851A23D902957BDE84C89BC0BEC523C7094B33CCEA08ABD6AFA42BD6A7A40BD89C60CBCB8ABEFBC5F3BFD3B325AF5BC933FCE3CBAA94ABDAB6D653D2AFE1BBC1E8132BD80D788BD8ABA3C3DA54A673C85C556BD819426BD411F7FBC678F19BDBA89F9BC284D10BDC5112A3DA4E527BDD55C413D6F3EFFBCF0E8E9BCCE55853D90CF8A3BF11E8ABD4DE8A83DB7A81FBDEBEC583D8F01F63CB769063C0BB8873AF3F38BBB26861C3B777D513DD61AA43DE267AEBD65A105BD4428923D6BF2E1BCF61AAB3DEB4D9FBC0BD930BBCFF8A53D613A463DB00F823D34999F3C2EBC11BD581F0BBDB322013D0B99313D791C48BD2712A73D51340F3DFA0C27BD482CC2BBD6037ABD3615353D19C487BDD773033DF55D8CBD4A4E4C3DCE5F873DDA2DB9BC3F1662BD7925033CF893E23A73B47E3D4EE4573C990318BD6B72373D9A4F66BDE00E97BD2A862E3D6D618B3C3BB382BBCA192CBC2B5C15BD0F2E6CBD97A433BD1E7758BD6D0CB83C0EBA31BD0FC9FDBB3DC4A8BDE841ACBD6E2AFCBBC061003C0D63D4BC0A8706BD4FDCACBC2F5A0CBD84738BBDF8A9683DEAA4A93D8B452C3D1A0DE83C50FAB13DDAA94E3DB7C192BD1128B83C904BA23CE7B60ABCAEF6FF3CC7559ABDC0D1C9BC1DD8813D7382A03D2C595F3D0D37CD3C2571873D93B54E3CE932483D6A4841BD48E769BDEC73BDBB18F818BD1B7F713DB2D714BD128BE13C52AE983C998EA23D9DCDB33D02D7AE3D6BE3B2BC4E414DBD4E63D23C73DACF3C84EC8DBC912C6C3D93A5243D3F7A9E3D483B8DBD880226BD1F8383BB1BC7783D9785883D2B0395BD0879603D4155DA3C0EF456BDFFF84DBC8E9F88BCABF848BDEBD960BDD8CDB43DE7E390BC87B8363BD6BE493DF53394BD45F6A0BDE2CB963DD03C74BCABDD98BDDB4EAE3C5FA8A93D0B619D3C0A9C3F3CAE9EB4BDD93C2EBD5951AF3D19D39E3DB96B863D5516B33D643E0FBD9B9A083DEF703C3D3EE4933D77AA9DBD56DF24BDD7FDF6BAF7CEA13DE52B6ABC3D6089BD32E141BDBC55A9BDA6B78BBD422B80BD016F613CB8AF473D8499813D44B82FBD5B357EBD6587E63B5FDFA93D3047C33C0C0746BC10F9163D4F49BFBC5549433C8C4718BCF181A43DA9A402BDD2B2483C7822C63C486339BC43DC313DD4DD12BD8FDDE5BC9295DCBC35E263BCE4C6663D01EDA4BD375396BD9F0727BD0A33CBBCC84911BD2D6489BDA298FBBC03C5883BFD54413DAE6E9F3DF1F77E3DE4FA35BCF68D9ABD63BC333DAEBA303CA2FB92BDFD2734BD7258A33DBC31083D84E38F3DA245933DF4A5DEBCE207623D320CCABCDF04C43CE30B98BD7897B0BD752A853C169B873D256BE83B216412BC99C7663D901D57BCAEEF8DBD31638B3D2760813D4A8EB2BD468960BD79D47F3DFCAB93BDF741273B690E823DEA631DBC701DAEBD608F1A3D101BA13CC54CCDBCE07D76BDA86CC53C9555CEBCE96EF73C162490BDF22E9FBD5646413D388C673D2EC4BD3B48E27DBDC104853DEA0EA03C6909873CC9BB8E3DFEDA31BD6A1A9DBD6BCD973D13AEB33D12BF943C837E81BD27B629BD4D511DBD8B9E3ABDC8002B3DDEAD86BDC31E28BA363BE9BCFA054A3D910181BDC94090BCAEDE4B3D502F58BDDD79B03D0D8936BDD4B4C4BCC5C0A7BDF345AABA5419103DF91E54BC04C96C3D58B0A1BDF20AAE3DDB73823C6A4685BD1617A23D6FE0303DC57E443D92647B3C707D95BDAE3B033DF8A2863CFD049D3D7325B63BE44608BD0FC8993C9B7CE33BAB0D7ABC2D4F95BD573A0E3C31324ABD6DDB583D0700363D8C4B833D58A56B3DC4CB44BD981138BA3267F8BCDA1D0BBDC88E113D9A1D0A3D6010AA3D6762FCBCEA3D993D63BD5C3DAF8D2BBDC1D4C5BCAFDC76BD1E3C963DA63A783DF02283BD69F0DCBBD45FF53B8D7876BD3C429ABB29CD6CBD92A0ED3CE750493D70C9FCBBEFBC2C3D285C243D7B058FBCF8B421BDAFA3A6BDD0959DBDFDBC8CBD36DD82BD13F942BC33609F3DA531A13D91EC3ABBD5D5C2BC71E962BD63C6ECBCE6C7093B2BB5343D7DC7973D78F0893C2C3332BDB25EAD3D98D3863D27A7093CB91E2F3D45FD9D3C91A2073C29258CBD627684BDBC47163BE790AABCC54AA03D8A4AD13A8A77083DC46D5BBD321F23BD765FAB3D9CC73CBC6807B4BDFFAC873BA9C3503DFCA119BB8E6E7A3D685967BD67523B3DB5CC28BA2D7B4DBD33472E3DE5F46FBDED34C53C84E09B3DF3AB923D9BF1CB3C67CDAF3B1BD6053CD141653D6624B43C556795BD76E424BD669F82BDE081EE3B1E473EBDBC0E2B3D6FD3A03D25F6233D7F9588BDCA9890BDD24E8FBBC19D19BD1DE3A4BC540B303DD7A73FBD403E4E3C284B17BCE7ED643D297498BD8B00913C8BEF8A3DC0316E3D0DA985BC22FDD93C21C8733D26CB0DBC5AE18A3CBA37C2BCD79C79BC108F163C5B2D193DC9EB9E3D7D2D99BCD2E7633C4D39A93D3B018A3DE5DBF3BC6974993DCFD7923CE44DFD3CEDD8A23D3734483DAAFAA63D18D6813DCE2F97BDBB287B3C64D08E3D9424593DB7EE723D9E34EB3CC89F83BD160599BDF0FC6D3D0B1699BD7C3EA0BDB0F5283D75ED8EBD06D92DBDA4FE08BDF19423BCA27D4C3CDACF363D598EA03C6C04EBBC08F785BA0655CF3B62D2953DF654313A11008FBB1D9C463DC3B7B93C15350E3C418FF0BBA36C75BDFB7F893D50F7823C272E3B3D7752033C978D32BD15BC133D19B11E3C851AF83C3D24B2BD39DE6B3D9569433D363460BC576003BC2DD31BBD437451BDBC1F78BD2DBF19BD92BF8E3D1D87A83D1430DCBC24AD85B971CD303DD6A9A93D9032DABCD1EB7BBDAB389F3D73F55A3D8826B13DB423A33D9F8D54BDB72F3C3D6BE127BD7DD8023D81AA043D49B67B3BF55CB63B9B34413D5445EE3CF45AD2BC1E6F11BB5CD1903DADAB8ABD8BC4B33B2A4B8DBC72DE8D3D8B028FBCC53909BA3F0EB23CDC39B33B260F653DF94B543DD787703D7189983B7AA7AC3AFE8B933D229B7A3C95C372BD547698BC70C0363CF22390BC225DAF3D811F10BC08F1A2BD0B8397BDEF398FBD9B3E0EBDF9F60C3CEE3799BD645BA93C4E7D9BBD52A191BBC14E1E3DFAC02CBD2AB1A0BD4C9E08BCBD810EBD66F48C3D91A3993D1C52803DA0461FBDFE28ACBB9E2E86BD0BB7CC3C04F1AA3DE75761BD7FD1AEBB9372A5BDF375643DAF68AEBD1013B4BD6A5645BD880183BD35DACABC562F993D0FFF133D661987BDF691A43DEC646B3D912016BD96DB513C7E8DB0BC8DF36EBD9E65883C9DAF853D571E92BD0D09873D81FE48BD31CDAF3D9B9BACBDAC9C85BDAE7E57BD70D0753B69DB7F3D9BA5183D32FDABBC8C0C3C3D5D9A693CC6F03D3C21AC823D411FB43D1BE72ABDBA97C03B232C943D46E9B23CB119AEBC35BE843DD900093BAEC1833D92AD1ABD0D3B0E3AD5D24BBD252A1DBD373730BDA7F436BDD51C82BDC2379A3CF649973CFF41AEBCBF4F073A64C0113DC7C2503B51A9EA3BC43F1DBBB2B86ABCAD7716BD93F99CBDC10B0B3A18653BBDE08019BDF32527BDEE90F5BC5D92823DF8D5933D33E3AE3DF997CCBC4836E1BC674F813C777885BD89F57EBC365C243BBCEB543D3AF09ABD425615BB11F99D3DFFB5623DCA63ABBDF4EB953D52A3803DAFD5ADBD5AE18B3D2C4D9A3DC7EB76BD60EF27BD899B49BDC3F293BCAC8063BDD0C8583D28886DBDEB1BEA3CB4CCE4BC8F838A3DC04C3CBDC53499BD96A57EBD31A6A03C4B7B82BD26CDA33D09FC4FBCFDB6AABD58CD733DC15F843D6733383C7DDE19BC831DA2BDEB12B2BD428CA43D3CDFB33BC007343D14A7583D7A53253C137B713DD6D9303D8EAE763D4F86993D9D55963B607EEBBCE8717D3D5438AB3DCBB6A03D2962A3BB6CF28A3DC42AADBD9C5E283D126230BBB36B883D35F793BDBE06B13DE736953C43A0633D463989BD24CC85BCB84D02BCF31373BDD43B37BD4F10E33C6E68CEBC2B6AA53D874E583D664B80BDDC181C3DA285173D4EA898BDC07CA13D34BC503D5AAF89BDBBC9A4BDBCAAFEBCA4F89A3D4A1D89BDFADE8C3B977C123D256DAFBC616D42BC8C747FBD36AC2FBD1EA79DBD4ABECCBC00F30BBD24D9473DEB3453BA8390A93C11BA293DABC7873D7F2630BC43F5C03C3F19613D245C603D87528C3D0082B13D84EE4A3D26FBCBBC092049BD019B19BD053AAE3D3F6C36BCB15CB3BD393C273D3309A2BD0377293DAB28A33DC64A25BDBD635CBD5619C33C65297B3CD078C03C09055B3DA611E0BCA1DEB9BAFAB041BDB38F63BBBF960B3C37BA95BD4603973C2E749ABD56F644BD79F4AE3C0EF4F1BCEA1EF8BCE3069B3DAA96343D79E79FBA47A255BDF8DE87BDEAA7B2BDEA72C83B7092943D4804A9BD03250DBDB261EFBC1FCE1ABDC7F4643D66D71ABDFE4A47BBDB39A7BDBF16553D6D38003CB57DBE3CA1B805BB28D5793D91D9D33CD7431BBD96A2033B4A741B3D1560C5BA6898543D1B8E373DA1B27FBD4459A5BDA491853D9F7C7E3D5ACF843D003D81BD0B5EC23AAF8CD0BB6EDE803D11A7A73D57AF63BD941320BC249C113D0BD7C3BC75C985BD27F6F6BC4D3DB03B7B9FA4BD0BF4883D1144903D996592BD3702F33C0E57433D6684A2BD50D002BD02ACA03DB9B318BD5227C43CA03E243D560D0F3DA03AA83C9532933D7AF1A0BCBFD64F3D897A3CBC7D40403D1E3195BDA864D6BB0360A1BD7141613D23D1F6BC41F3EE3C36F6B33DBA0468BD8761A8BDAAB3B63CCFB65B3CB476A93D7586103DA7F4E93CE0AF45BD8E40B0BD8B7056BC211FA63DCA7C513D317891BDA259A1BDF55F76BDE7DD823D992DCC3BB044A33D5AC741BD00E314BD82F26B3D86BD46BC6C2B613D1E5D9E3D7F0562BD6D429A3D3D59A6BC46F639BCC94B17BD16D47FBDF1B2B03DA931773D4F6F913D90ED31BDB2EA9D3D0D703ABDD1908BBDFFEB243D2723833D5864AABD850C80BC105A893D8B3098BDBF8299BD017625BD2E6F7B3D72C8A83C92B9AD3C31A21A3D4466133DFE0567BD5125CB3C063172BC7893713C31BA37BD6DAE633D9ADE3ABB96F8AD3D7DF8513B51957BBC6BD020BC34F4123DDFEBE63C3CD8B43D8ED226BC0075D33B4A8CCB3CF6B6403D8282A93D8C0D17BAFD5078BD9AAE8E3D71B3A63CFF72A83CA32E9FBD1549853CAA5F25BD594DABBD46CB43BDD48A15BD4AEB70BD3962E3BCAF89F53C6A23B03D250F2F3DBA2EC33C38C343BD64BA923DFA7FB73C07CF5B3C9864973DD254503822B26EBD87C18FBC4F48933DAEAF98BDF4160ABDD00892BD2C037E3CD7C0B3BDB441963C61D3703D86C88A3D291629BC4A539C3D74BC95BDD898533DE33169BCE664303C204F36BC02CF7CBDFEC3AE3DAAE3B1BD08CFD63C49A8AEBC3A20A0BD82C49FBD1B23AE3B97E0D33C70C2513DAE2DF3B8171A9BBDAF75A13DA6004F3D50D89B3DCE686ABDA79724BCC74A8C3D7F9B72BD174E573B18E56B3D7B66A33D4429593B1FA9983D387A46BC6E919ABCA4587D3DDC1E48BD16997DBD2B8275BD3F02843DEC2F8DBD6D74873D8D5D50BD0CCE2A3D3576ABBD2EE8A73C488FAABDC4418ABCD4B0E2BC8CCA06BC7941A23DD0A8283DEE7A413C78DC1F3C6A7C57BDD0D5243D61E85ABC2FA02CBC43295C3D2265903D2189083DF12CA43D2F3303BD1C1560BD732489BCA235023D4201833CA32F25BC26FE223C3F9F80BC302F223CECB9943D479C813952F1403D51FD983D4570A53C0CA9C9BCDD6AF83C910382BD5D24C7BB5134D8BC163A99BC1A5B14BDAD0630BC9920C5BC5271A33D5D87103D426DA2BDA7298FBC4294AEBD98AE21BD7E143ABDB8E07ABD99D3573D66F72FBDE7D22B3C9B46273C8F498B3DA44C44BDA959903D74B281BD40DC9A3C5627943DE01DDBBCC4CAC5BB9FF0AB3C3228ACBA59AFA33D70A71CBD3114A7BDBED7823D2A2F0DBD9BA4603D0DE89ABDB12E743D37B531BDCD11B7BC9B1536BD8E543DBDB82AB4BB71111A3DBD68013DA2002CBDC972FA39FEBD85BD5EA2B1BCF0F312BC23438C3DB402CDBBF41548BDC3A139BD122851BCF459CBBC9696BABC00238D3D243019BA591410BD8F4E563C1CFCEB3CE155ACBD132C503D2E6396BDA67EA0BDDD67A1BDDAFA6F3BDDA63EBD36A517BDE048B53C5D648A3DDE7FAA3C752C3EBD9481AC3DA8C5463DF1B74D3D6149A6BDA4CC133DD933AF3CE449AB3D642459BD2F9E113D8D9535BBB48ABD3CFC0B3C3D1462783D4D554D3C88A9FCBA8248B83CD05931BD13AF76BD44678DBDA97345BDBA1694BD2971ACBD4974C43C0EFC0EBDB6FB973D9EAF4EBD5157AF3B337E6F3DE222AE3C2CA0413DE1DA423D5AA0B2BDE2A44B3DA1C730BCCAB3A9BD7525873DDEAD1ABDA6109ABC1771983CAA393F3CC2BF4A3AA6F47ABD1CC3E53CC67C873D71F0653D6C2F7CBC1D89F0BC0F5267BDE763A5BDB6CA9EBD18D20EBDC1489EBDAA880E3D62C2943D2152CBBAA3F7143C6C1A063DE910BC3C020C443DEC316FBDAA26143DDD0EBF3C3B7C8D3D2AFC9B3D99209EBDD9168C3DFAF43CBD74FA9A3D49C003BCDC035A3D70B66BBDBC5B5DBD510DAE3CEDCEB13D4C1B36BD7DBFF9BCB6B672BD21B608BDA2CC8BBDE751B0BDB6A2A6BDD602B0BDEC4F3C3D7C5D3BBD21D2D5BCBE2451BD3CB41E3C311B84BD012C59BD691D57BD27C994BDF58D923DBF8B5ABD60DA1EBC4B10C03C46E9CB3CB70B413D4E0E91BD3F9C3E3D2436133BEA774BBDC8F590BDC75E3D3D577C573D3E5885BD1B7F9EBD6DA6953B56487A3D573DA33DA2309EBDE6ADA6BD88AD13BD9DC5B9BC27931A3D6B8E4E3DB143803D98C513BCB4836F3C7F2FCC3C1B0D97BBB15FA63BD123AFBD0187923D97992C3D9A0F023D9285B0BD67B76CBD1B3FAB3DE802973D0DB585BC4D84F3BC130169BD755CC13C56B3A5BCE1BB223DB8E4413DD36AAC3D1ECA8E3D4CFB443D0BF6ABBDC42FACBD056BA83DBD95863D34929E3CB0F9FABC9DA6B9BCC71E233DAF577C3C7B929F3D6F4272BDCB59CC3B8F502CBDB1C2863D4E237E3B37617FBDF84939BD38FD95BDE62AEE3B28647ABD33BB5CBC650A723C700C853D209E87BCA3EDA33D6A6B883DBB7C71BDD3503FBC4496BCBC2E794E3DB25582BD11684CBC875B283C71B3D83CCC7EA13DAC6E89BCFE21AEBD8883993D61721DBD22664ABD13149E3C840DE93C5A052CBD32D0C2BC17F3723DDA2DA83D102CA4BCA28232BCC2C95BBDBCFC1A3C3C523BBD7F4A10BD50BD513C3B0C4E3DFE8153BAFE6F9FBC8F95A23DBBE8B4BC76CD913DE80321BD6B936E3DB75D543D47514D3D4DA1A8BD7C89D33C0E2D313C44F2603D3C0FD9BC71595C3B4F577CBD51357FBDDB9CD9BC8EC9123C0C4AA8BDC9BA313A42F5ACBC63ABA4BC417886BB858E32BDBF1666BDFC70563D9F9803BD3296173B0E3E01BDC4F70FBDE654A5BD63121B3B26F8F0BC7A11703C12C192BC17A1933DA3DC5B3B025D8DBD9EC582BB070A5C3D526732BC47B332BD750FCC3C496989BDB1D9883D586D233DA29E7F3DCEC4BC3CB2998D3D97B7BCBCF2285BBDF1C1943925A9AB3D52C82F3D7523893D622934BD9182A2BD96C48DBCCAF89FBD4F364FBDB2099DBD2FB9A23C0F2EABBCC8AE7E3B4F60B03DE38C64BCADA4D5BB998297BDE17F863D8E2FAC3C3EF02A3D0222ABBD9C210DBDE25C9ABCCE3F0DBCDD9BD0BC651530BC8318273C3A89563D7FAB393DD7A883BCA79A60BD28514FBDA30EAABDA64F113C0C848A3DBBCB64BDB596B3BD9CD3853CC249073D1635483DC75B40BDA29AE4BBB7E12EBD8FDA7DBC71B1863B937DCF3C638E563DCAF883BC7A8522BD3706E63CD1718EBD3DB90FBB413BFABC650A1E3DA2C359BC93720D3DA1E697BB1EA863BDD5CD88BD39E11CBD7EF88C3DBAD36F3D60E61B3D59EF933DAA634DBD076EABBC4994833D57AC493CAFDD91BD12AD793D96E396BCCFE002BD9E5AA6BD968C063C4C304BBD45F2D7BC3BA4253D9C1101BD89F455BDE4DF02BD71153CBD3B3D6E3DF72999BD2BFAA3BDDCCD94BDE7DA053DDB97103D83D6323DEA2960BC7F76223DBEB52EBCA846373D4F9E21BDB01836BDFE5E92BDEC163CBD47F6A7BBBEBE283B70739C3D47DFB3BC2FA62C3DA4866F3D6F2E87BD89A6653CA8F031BD479095BDEF1098BD6777153CB98BACBBE94FADBD746D603D44DE083DC155A8BD3CEB80BD03F5A43CA6D32C3D91631E3D748608BD1B359F3C347F8EBD09A9AEBD679DE23C3E9082BD216686BD58D99CBD50E801BDEEF4A7BC494728BD346B2DBDDA60763D2F71453C5688B2BD00274CBD8C072ABCC4CC71BD0749F5BB7F187E3DEF66123D9C0E493DE026123DDF372B3C3D03DDBBB5609EBCFE658CBD93B78A3DB4A8193DC3DAA73D3D68533D933C79BD125C433BEE618EBD2D689F3D54DA2FBD39EDA2BB569796BDE063903D319F45BD10D0D73CD3B0813D732188BCF670D2BBCAB92D3D512B62BA2B8B2A3D7C47E3BBEDCF95BD550824BDCB8894BD2A73A43D5122CEBA8C87A13D7155193DD51DF83CA36B783C276936BDD36C053D5C79453D6E6EAFBD573746BD7566D8BBA73526BD1950143D8C06A7BDB0ECF33B6896AFBDA99C82BD376D8ABDB0C08BBDEE01A33CC7FA9CBC54A146BDC136293DCFEC87BDC86C86BDEC757C3DC8E08F3DE146AE3C05C1A3BD4B81413CC88C13BDB2EEAABDEA30153C1E44B43D0D5E1D3D845C813DF0B625BD53F34EBD01F0623D854350BDD0984A3DA6EC483D655BDF3BB7B0853DC96865BD1C20EFBC45E535BDDFFBC0BB73633BBC6ED89D3D21CF4C3CD1798C3DB4943B3DE5F46D3C8C0763BD5D8DC43C89C544BD2AFC9B3DECAEA2BDE8F258BC7D4009BC072DA13D0AEA09BDB62486BD62CB20BC1C309DBDCF066F3D023B5DBDEA7B5EBD36A625BC5F1E9FBDF954963DF4DD5DBC709A973C6B5DADBDB8423ABD4F1C56BDDF4D153DBFC74CBC6A2253BD4C6536BD125136BC14317C3D76C266BD0CC0823DA08D73BC383F8B3D3C5592BD5B9E313D71C096BD4FF015BDA8460DBC0B42913DB9D0303D3DC69C3DD69E933D8AF1663DB05A20BCB89C3EBDFBB39C3D1CF7B53C335D8ABDF273133DA475A23DF9621C3B681DE4BCBA76B3BDBF7221BD8CC8903CDE73953B35FE1B3DE4D3A63D4A1449BD0CE40EBADF5C87BC2EF0F73CDFB016BD8EC8D23B31BBF73CF7049B3DE8D925BD9279003C493498BD824B803D0CB7953D281184BDAB48853D9ACB98BC07F6ECBC7E0FAF3D8E11EA3C93886F3D03FE45BD7A7116BDF1E7763D348F2C3D347711BD64CF4C3C6EBB93BBD0C2B83C93863DBC60D5B2BDDC7670BC4C33C0BC82408D3D64A99C3D76A65ABD8F024F3C0144E53CBC6F5D3C87FDD13C12A5A7BDC6DD973DBD9A943DC8ED14BBC13A953DA7550ABDB2684ABCE79DFDBCD9D2643ADB53B0BD90624A3D7D72493D66CB71BD663C85BC5254B1BC24C87F3DE6A575BD5AE93A3D526FBE3C9E672A3DDC4E80BDA517CA3C5F624BBD635B6B3D364A6ABBCC1489BDDD594F3D03792FBD28B9B4BCC91F55BD72A3A1BC129099BD52B71FBDDFCE183D530634BDAD5C4EBDF5E822BDAB86AC3DBBB3CBBCE4A5663C0F0340BBE36A54BD89A4AABDA5D4413D04412B3D4667B33DCC9821BD9E36DC3B1AD82ABD0D7633BD83A1EB3CD2F1153C85E2263D01FE87BDE26809BD3B1FA8BD94C094BD8D4F84BD2C3463BCB613743C7FEB9B3D30F7ABBD0EC3ACBA15AB9FBCAC789C3D343DA83D2F29343D59A9D3BC5D0E81BD090F373D5C86813C5F138BBD3320C1BB4AD53EBD8C750D3D7FF89D3C481844BD42AB4FBDD77177BDEBF959BD2C55423D406B76BD69CE8F3CA50C773CD243733C79D45BBDDF5B52BDDE7AAF3D483B943C8318343CC2FF323D308794BCDB4E82BD389D9FBD8D7E63BDF7F2273CB167653C848385BD529FF43BCFD458BC67CE843CFD3FC73C6163923C5A8E78BDB7CA4B3DA1FA30BBFA38F6BCFC196CBDDD4409BCA00E983D884D8A3DEAB24BBC1DDE87BDD776693D147E1F3D0CACB4BD720A9FBD42972CBC8EC3273D1F2AB1BD96C6313DA40E243DCFE6083DBFBA863C8800913DF3176C3C20BC85BDDF8D01BD6BAE453D3CEBA93D4198A63D0CCE983DA4389F3C0493153D17E718BCF1CA52BCD359A5BD86196B3CADA886BDB95E95BC20DB09BD5F12403D729083BCDC09CD3B4E949EBDC182A73D26CA9B3C6DE695BD7DA9D23CAE68A7BC8B89B33C7F915BBDB6409BBD7864863D5D39743DB71C8B3DC4DA8B3DE6A5A4BDE75137BD932D33BD9A76A43D40F435BDFF00F8BA1A0127BD3579413D9E65B33D682FC4BB202958BDF6FA7E3DEC3D5A3C9BB5263D235F66BD47765A3D6EF880BDF2D1A33D826DA13C2323303CE167F4BC5A86ABBD210BF13C773926BCF78471BDD344893DB4C998BD206B963D4CB6CBBC8355ADBBD93E0CBDED83A7BDAE36543D0E408CB8F378E93C08675CBD8FA465BD77548D3C4D1A30BD19C027BC86E9913DF56AA73D3FD7163D8E8A643D166143BD7EB146BDC42726BD2F9C22BD17C04EBDE8A8A53BB80BA2BDD25BA7BCECBADA3CE299183DAF91AABDF156AA3CFE07B4BD6DC4473DB6CB2BBD886E93B83B3C4D3D02A247BD0400583C26E6A5BDCD9A6CBDD78CBFBCB62991BD0D860DBD1AB39ABD9C61C0BC81FB3EBD0F87A4BCB696143D48FB213D61CD9ABC5F78663CB4A377BCAE522A3D01B32B3DC85DB5BC2601DFBC2FCFD2BC8806A33D270CCABCDF69AABD4A76323D84EAAF3D93AA5E3CEFFAC23B840AA9BC5C390E3D01C8833DC54383BC92CAAA3DE9CE603DE8F4A03DC8538DBCFE316A3D9A3D3C3DC1292A3CC8D33D3C4E6128BDE4E5AE3D84FB55BDB85F21BD50A7323D77CB473CC3EB89BCB6739CBD778F893DF52635BD30F1803D42983E3DB97997BD4EC7883D3859903D50BFCBBCEE0E323A0F07C8BC28FBA03BBDE1A13C1063F8BC085C98BCE3D4863CC20AD33BDC90D43C407AAB3DF46F85BD54A3073DDA5E9D3D04D5A0BC21D9343DC59A973DDB0AB3BDAE623C3DF5D4793D3DDBA8BD427948BDB22899BD82C0203DCC0D483BB0F9E93C2F26A43D2D7BF7BB3C8EE03CBB1D1A3D9DBD9C3D9318E73CB43C083D5B7C8B3D812420BD1E8741BDD0D3803B4B9FCBBBAF1F55BD234E56BD9A5E6DBD6A0135BAB41788BC2916AD3C4408CA3C5EE5093DD1FA173D532354BD27BB85BDC9EDC63C600057BDB496A23D4E413A3DFE69B03DE9E367BC4A218F3DF533E6BC367AB33D712C343CF0329FBD2DC62DBD7621793D831D26BDDB14813D50E2363D720A86BD31607CBD35185FBDA0057A3D70D593BCD884253D26E090BC0B09DE3C2779D83C1F90413D87A96EBDE5240C3DDA67A6BDC939BD3C40909E3DBFDB153D4C3C5A3D8FC900BAD6E5ACBD353C893DC9BEDBBCEBC891BC1E9DA33AD7C6883D7173013D13A32B3DEC5D7DBD69F7A3BDBF7C053DBFA2783D3270AB3DA2A442BD22A4CFBC03129A3D38CB803DD54C973DCCCDEABC0D1A5BBDC0553B3D7F54183DCB0EA1BD8B769D3C8E2F63BDAC1E903D4B889FBDDB4B553DF314A2BD95EB493DA1CC90BDC2457FBD309E8C3D8375CA393D42583D244D8F3B80D52F3D97C1FDBC299FB6BCAE50BDBCE8B2A6BD5B3D1F3DB72DA43DC1F984BC70C0CFBC54DD673DBC8E0FBD5E68963DEE665FBC9601683D132A3D3C6BFCD2BC6DC9A4BD454949BDDA2B00BDAFB296BA64AB77BD51E0973DADDD463DADA8A83D17E720BA11849D3CA27307BC7C84043DC2FB293D57A184BD6A57AC3D64D522BDB6F4143D6A94FF3C05CD6BBD1DBBE0BC565C983DA10136BD3A0601BD8A7BA53D46B3A5BDE33ECA3BB009C8BCA9A707BD415453BD8ABD8CBD5B5E693DBA468CBCDF7D3EBDC699BD3C476BD73C6CA567BD6E9287BDF2F389BDE32F4E3DE876023CA4C323BDA40EE5BC70FDA33CE299AD3DE52C1D3C637357BBD464AF3DE82D89BDDE9857BD873794BC241B233DAA53583D6473373D99FF17BD9EA6A7BC7D99853D5466843DEC0F503DE8F18F3D25E9D7BC935E983B37F89BBDC7FE893DFD22053D51347EBD1D19B33D1E3E413DD9E6C6BCCEEFAFBDB92D73BD6A954DBDC296A7BD658125BC24B5AFBDBCD2A93C97E5ADBDDC4419BD3176F93CBE1FB43DC56E9B3D8E8563BD8B7CE73C20D036BCF7FB633D597805BD84FC72BDB8B822BC209F56BD29D427BB10909FBDB83F4CBA094C263DB4C24DBDA3BF1EBDDF7325BBEA7AB3BB20ABB03D63218BBD13B2CF3CB17C53BC21BF11BD6790BEBCDCEE8DBB0282893DC7EF023DCEE8A23DB02763BDBB3A423DE8B459BDDE4C7C3DE1E8C63A7B46ABBD0D2CB3BD74BB853D3B6EAD3D2DCEA43DEFAAA7BD0A4F483D0D2089BBFA5896BD55346FBC394EA0BC7BF38D3DCF52A8BDC7F064BDE6BB3ABD9073E4BB69EFB03DE8198B3D3EAC1F3DAA5934BD13EB773C9A88793DBD8DB8BC8328CDBCC07094BDD0DF7E3D46FA37BD15FA8D3C9B3EEFBCF573153B5C8F413DE2F1B0BDFEC36BBD8A11083CEED83FBD8B29243D2E25E9BC3B51523DCFD1143D8D6A03BC779CA93D8197AABDDB51623B927A96BD3CC792BDE21263BD3D1E09BDDAF9393B781A75BD07456CBB6E15823D0FFEA7BCE6B420BD2468F93C94F941BD79F7A83D40E108BC9CA17E3DA60E533D5F3AAB3D3241B43D1F740DBD94D4453CAA2C343DB6D78FBDFC0EB0BA79A9C43BC55533BD07C9B33DDCED4DBDD679AABCD2B789BDB467543D461DAABD8157903D5532A7BDA83B51BD8866A9BD41A322BD64F82FBD49BD3D3BCCD9093C1C556DBD03BCA23C17270B3D9C6A843BA5D2023D02DC2D3D4E77873D88885ABDB28B423CBE3CE8BCEB04903DDAD88F3D2D3BB5BC5ADF38BDCC68FE3C8493A1BD9B93ADBD155EB23D63C6353CFCBE20BD3F68F13B5CEB99BD38962EBDC6F09CBD7A6A243D041691BDDCD7603D3A9D0EBD543A9C3D9B8D6C3D3E7DA83D6BF67A3DCC19AF3DBD09043C2B49AFBD03D955BDF25A32BBE64AB73B099449BDA452B1BD73662D3DB71786BDC81790BD8B3607BD61BCFCBC87C5523DCD56673DCB769B3D6C0DD53C7CAF90BD6E7B733DAEDDD23B8C852A3DDAD2AABDBC8E963C7A569D3D46DC5FBDD7B8203D836DA43D7018353CA358DABCF94943BD3FDACBBC9B6E1C3DDDD6AFBD1EBE93BD92B6323DDEB7AD3C500452BD326113BD48D3153C9C8E92BDAF10B5BC4448D53C1D006BBCF6F641BD483A393D6CC2BFBC68538DBC96892F3D969BF8BBF305B4BB6BB0BE3C02C6753D0D407A3BB2ACA23DC61086BCE081AFBCE5684C3DC8FC813D63107E3DBE90533D8ED5813B3647A8BDBB54B33CEC075DBB0AAE80BD2F481F3D8FC8383D161244BD7794A8BDD357A23C29C5763D0AF2993D1B0266BC25129EBD5F73083D9B63D8BCFD793DBDE5D07ABD70E7D83CC45125BD89F52CBD8AD589BDB7B19E3D6D1FC5BC7E3A2A3D86834C3DB4ADDF3CB9353A3DF19767BD369F74BD5B9A9A3B29F8B33CBF7688BD53B3733C1C6D9D3DC558713D98AFB23D71B7AA3A07DDAA3D81E455BD501F0F3DCF1619BD6F29823BDBB5B0BDBC8E573DEEA702BDCF7A56BDEBF3A7BD9F58FA3B7D8792BD75CAA0BDFBC969BDCDE638BDCCF80CBDCA2B543C41257DBD84F3143D3D45BCBCB3B95CBD8E983ABD69BCBBBCEDD0B5BCDB10793D72BEAD3DD042923D505EDA3CA8A880BDDCD8B0BDA7CDE43C2555ACBCD3E69CBD4B87193D84ECF23C9868813DFD78053B73EEF03B329F7FBB9B0AA43D82905CBCA418A9BD406E9ABB30F13E3D085292BC45A14FBDC0AD17BD1E378EBDC4F963BAFCCA763DC6EDEE3C04E5A83DBD36DE39E182AB3D8BD808BDBB76DA3CEB8B863DB37D113D0D683E3D54C8793DF5143E3D96C5F13BB98FAFBD76F725BDB19F21BD4433913D6FA115BC0C78AE3BEC199CBD93E982BD77CC24BD98838EBD1C7E833D7C4288BD8325AFBD0303D53B33D11F3950776EBD7A1489BD53B20DBD60644ABDBBFF413DE2534EBDCB6C7DBDC24228BDA37FAA3DB4D9283C2610A93D15A0803D936F713D82EFF0BCEF2D6B3DE108AE3DB7EF623D48B9A7BDBD159E3D8296413D2FDEC23CDDDE6FBD3F07B43DAF089E3D92CD7C3DE764423D36B244BDB5920A3DCED923BDAD978E3D8E01F73CDE247F3A585FABBDFF43EFBC4BCD93BD45EC6ABD96DC04BC1309EDB9461BC5BC73F01CBD79745FBD1CDD81BCF2F4613D1BD165BD5CE4183D9CA07FBBE8E469BD17E3AD3DBFF2ABBC5D11A03D088A7E3DFD82983BDB0475BD4017DABC9C9C553D58B253BC8C14033C67D93D3D23C0893D810B893DE298FEBC6C13723D874542BD76C6A43D9FC815BD01309ABD16F2A3BDA722B0BDD0A2E3BC7747853DF05A2D3DA97CDDBC438EBDBC38653B3C3B9258BD6BD76DBC431719BD4EE8ABBDA662773D910AEF3C05AC2E3A47B38A3D8EF0B23DB471153D139898BD068A8C3D6FA50E3D9C2765BDE15E89BD814F833B3C90663D6747C03C27355DBDCB8C00BD1879973C9EC2813D457CE43C17B8423DB18E11BD205478BD028130BBE51263BD65B019BC2A6D36BD6A23DC3C4894483D903A4BBD2F40193CAC5908BD0A169F3D1EE88F3D0CEFA83DB03515BD11CE8D3C189C9CBCB4094EBDE7F4A8BD93A1613D4A6CAC3D7C76463D06995FBD48BD033DBEF88D3D58CE52BD13C3173D46CB3B3DC02099BD569B9BBD625191BD358D753D6860443D68B9673DB96C623B905F083D4458AC3DFE9B9A3CB17F65BC101B383DF1C8FEBAB43D403DDF4E92BD33F94E3D4CC191BCD38CB1BD9FA8EC3C307179BDA2D9A13DA5C591BD18511A3DCB15303CE7AE54BDEA885FBC43F3B63CF29072BD5F30933DE4180F3D36A126BD9610A7BD514B6EBDFC8B443D0D967ABCFC7E303D789AAFBD192C94BD84FC223C536D6EBC62E54B3D4EBFEE3CD6EF9DBD53030FBD82859C3CD21E75BDB5A982BD0856D1BB0D6D433DAF6783BD55FE3ABC6920233DDA6B5E3DA68C35BDD90BB4BD2F078F3D2291463DE2C1453CA46F2B3B602B7D3C77F5B3BCBAF3253C73C62BBD4AAEA2BBB06E34BDD933923D6B0D38BDBA5AC23CD2331D3D7409033C566BB1BD944BEFBC579D863D5FEDB03D0390713D1AB2A03CC2EA593D6204ABBDC830953CD7FBB23D271492BD73EB233DEA4AA5BDC78E9EBDB052803D126385BBA12E6FBCA7FE933DCD948A3D9784ABBB12C0E33CC56FDA3B5FB8543D5BADAF3D8981A83D3FB3CFBC847CA03C1FB6FD3CF0A7A8391F7D6A3D15D29EBDFD398EBC62C165BDEDD2FBB93B9B87BBCE64AA3D5DD433BD5A8090BD6A6D153D64DE383D44F7A43CCF6198BDFAC331BA18940DBDB8EE82BBF1D11CBC47628F3DC8870E3DA06668BD58088F3DC5CD37BDDBE683BDB5162ABD61A0683D768D2D3D0543AF3DB7238FBDFD7F11BD7E3C6B3D12FC80BD4274EB3BB58198BCBCC911BD7B1297BD619285BC0AAEF83C273BA4BBCF6611BDB9A6B93CF4EDA8BD39322DBD04BAB1BD1653E3BCEBDF68BD54DDEBBC9462FC3C7176D2BCB56B82BDE95F94BD406F85BD6EDE89BD0ADBFABC224A923DFFEF76BD230F943D1881B33D2A81A43D3DEBB6BC42311FBD08848C3D11802ABC9AE2933DCDBA813D0D92B43D365D8BBDB366413DE008AB3D82ACA5BDFB1C373C800B853CC6231EBDAD362DBDE3D985BD955CA6BDDC86D23CE75A163DC8B9D93C7604813D5AAC623D9B8973BAF0B090BDCAA3773DE80110BDC4980BBD2E5975BD9A7584BD41F49E3DD7D5143DD07F5CBD634102BB8E66ACBD3EC28D3D357C76BD9BC583BDCA0A1D3D36D094BDFBBF203DC5D180BD8A3F4C3D21CBBBBACF54953D124E813D83BF593D0239863D3DE083BC8BEAE23C8C08363DB21E76BDC51F4D3DA35E733DB925173DA75336BDBFAAA53DAF9E5EBAAF08D7BC0091A03D2E75A13D19633D3D01F682BDDA0A043D1C26D8BCB1B86F3CF9E6843DFF0F70BD3EFFB3BD4B419ABD0921633C3F470EBCFC0C9B3D4BB33A3CA8DEEFBBDC2F6EBD3C22FBBB49A0453D44FC9B3B6B1F6A3D6D9794BC684F893D6E3256BDA4BEFF3C8DE921BDB406AF3CCEFC54BDB3416B3C40580A3D829A86BD2C48AC3D4A96663D10A6953D8DCE9EBD15FB1F3D5DF88C3D88789BBD7808903D84ED473D36AB9E3DD0B76A3BF5AD72BD58B21ABD50F682BDC673013DEA36713D3EAB813D11B4BEBB44B12ABD7AA6E43CBBC54DBC3A4E2CBD13F2E33C1BBF443D495AE03C783E92BDAA8D93BCEE9090BC094C5FBD6C78AABDA24F38BD0B14393D5691303DAE143C3DF00B753D2D8A653D16C684BDE77DCBBC967824BC6B27AFBD9E229C3D616D03BC8B3D8A3D763E1DBDC3788D3DF0C27D3DBF1027BDC4A459BD49E95E3DB940B93CD644B03CBFAC2EBD4041013DBCC5443D188113BDA1724CBCF0DB94BDC1BCDB3C95952B3D3152983D5DC48C3D041EAEBD7C8AF4BC81F308BDA9DB84BBF67B833C1407623D146D53BD3DF16B3BB6FA123D90D3BCBC227E43BD0987F0BB04F2ABBD81CEF7BC93AF3FBDD937573D4CC62DBD932DA23C146D813DE36987BCCFA49EBD50A07FBDD23AA0BD4906993DA196B23DA9C9B03D820DA63D42F414BD0540A23DCEC2013D13AE25BDF668B4BD3A8EDD3C1F17013C4F48683D1C89793DCAAF233D1E34A8BD88C47A3D27EA54BD92CB483D3DCF8B3DCB79273DC89B833D240367BDE86BF33B9A4E9D3D806A083C042087BC7B8FB3BD9C2AA53D14B4C43B60E8833DDC2B99BDDE499B3D41FE9D3DDBB6D6BB005A82BD59EEB33B3F319A3D6858A9BD16420CBCB66A47BDFC45F8BC074351BDE64B013D364242BDACA911BCB8DC433C8E62193D11738EBCD139053D0D726EBCC7A5273D27AB48BDB16F74BDFA4613BDE57F18BC53D70F3DBF5AB3BD4FAF043D2F0FAC3BD2AC70BC0E70633B3A3BA33D73E40DBD2C3BABBD516283BDD6F58A3BA06B8D3CAB8B063D691118BCB7DF5E3DD6CE62BC169A97BBEC58AB3DC6B9493B3AAC8FBDC899383D2E821F3D3473953CF32D053C7EFA503DF6BC203DC2D4383BEE0E003C58A67D3D8EE585BDD920613D08B954BC67E18D3C3615A93C17B962BB9E25D13C7E11693DD3F4A63DB864D2BC900D1DBB1A8307BC26217ABD7CF999BD6E02743C9A92613DF3CB54BC89C3B33D5A1796BD4B12573D70A1903B88D8693D88C130BD9504C0BC87BB9DBD32416ABCFE9518BBEEFC97BD6288393D26917CBDAC6089BD8BA6AE3D6474B0BCB272D0BC1875D63BE8CBA73DA64F88BDDAF6A43DC923B73CF9F537BC4D51B4BDE6BB73BCA196903D1AC3833D6C9B7C3D88D97BBD8D8EEBBCB94667BD3C9A6C3B0C5EA8BD56368DBDA9A98F3D10E70ABDA849AABD2B987B3D7B3D913D3281493D014DAA3D8706943DCD7E95BD25101F3DA4DE5F3DD76F92BC92F8893DC5AC67BDE8E495BD304A1CBD626DDA3C2B9E14BD0C6103BD1702503C1C62D3BCD16334BD1E31713D88B3B4BD93FF0B3C75EA21BD21EF60BD0DCFA0BD516FB2BD95DDAEBDDD63CD3CDC7893BD6013ADBCA295ABBDF1FD8F3D502A873D547E9D3D5C50EDBCDC79BABCEEC2223D8B9051BC6DCF023D059467BD9190873D729CB0BDA6EF92BCAF1024BDA42CA6BD11D48B3C2B6E943DA51D813D73C25C3B6B0319BCF9855FBD233EB53C0D5FD0BCCED468BDD3F8A93DD59D6DBC165B98BD128818BCE92E593D9A7E7BBBA207D53CD9677C3D3F998ABCCAC8543D8926983CBC5452BD5426973DCDF37C3D35D0463DDE74A0BD83E9E93B30C169BD98A88DBDBE2B933D0B5345BC9BF5E03B7220233D37D40C3D8C1F283D60C59EBD49D818BB02FA13BCF8B522BD99F961BCF3E62CBDBCC084BD6C7529BD47A44FBD696FB1BC06F35FBDDCAA6FBD6796B23D53594D3CDBE76D3CCCFE603D62A2193D09BFA83D87F112BD6B30A03DA14D923D25BF77BD512C82BD4E6350BD079DA73D5CC60CBC88BF4D3D60CFBA3C3674ADBD654DA6BCD1F192BB5A4D373DB709713DEE17B1BDB5C45D3DBFF1FCBC0252733DCA2698BD15B1423C895194BD2358BBBB6519CD3C4761013D34C1BCBAB46225BDD0269EBD530DF03BC11C813CC095D3BCE1ACD4BC1E7616BD91736C3DD46B733D220727BD94A06E3DE53ED1BC82F522BDA7ACA9BDB8387BBD69D6863C927BFC3CF6C5C3BAD1C7FEBC9F8D8E3D34B1E63B343A4EBD5D7C4A3D3BAD90BDF935FAB9A5211BBDBBB20BBD8F994B3DA07D173B2543FA3CA479233D56A4443DE36D31BC8E4160BCC0487D3DBE5A803DE484483DF4A48EBD04394DBC065338BD75CE9FBDE07C90BD3C062ABD6997A83D54D82DBDF3DC023BC530AD3DB98980BDC0664A3C1AAB9D3D0066A43D6267AABD2C888D3CF11D39BC123EA13DF1CECE3CD330003B0BE98EBD585463BCCF30933D9A25B23D7483AA3D8B32E2BC2FA8173D726A73BDCA8352BBCD87A13D9A284A3D65AFEE3B5DC39BBC939623BBE4B189BBFE93923DF04E943D8EC56A3C06BAB33C406E85BDA4B818BC94EF693D556A82BCBB9902BDF318CE3C27A89F3DC7FDAEBC1E2C703D8385543D23ABA2BD24D7AFBD1133153D3BCE5B3CBACE95BDC8EF903D5A1865BDAEAE63BC53A577BD55CA133D7C1BAA3D4D849C3DCD719FBDBBEB353C61ABA3BD3FF875BD478D65BD01C8B3BD55395D3D15C8C3BBA03A78BCF83177BD0365A73D4F4D7A3C0DA078BD93EA3F3D16A135BDC9ACA9BD3C5F273D5393DABC6F435C3C44BCB53BD3EE99BDF229583D46A52B3DEEA61ABD0CC5E6BC78090BBD07D6103DE0314EBC9C11313B7E2B1BBB132A91BD4F951CBC464D633C7E51C2BCC7A2EABC08D9EDBC6A56D83CB856403D4A502FBD2F74883D8C73743DC64D2E3D266E14BC6C1285BDF53B85BD6FAEA0BC89EE9F3D76CE53BD77DBAF3D89C22EBDB6BA85BDA2F78E3DCBC67FBD9CA21EBD1F50F93CB42C3DBDA612C23C516BE53B6EBCE6BCE2AA49BC0BE400BD02D6033D12CEFEBC99CBC7BB930310BC67E0C93CE4B7E83CE27FE63C90100BBD94A70C3DE548A9BCC6A7843D6AC808BD070F783D464843BD1884793D0951CDBC3CFA94BD1B464EBD34AA763D9F27E33CA55DA73DFAD6A1BBA66E81BC1DA6B0BDC815C7BB3B1D7DBCC7FF733C2ECA783D38D95A3C4EFC743C52EFA83D9E7B603D7182D2BC0FB35E3DBE0C5E3D8A4BC83CC57745BCFA5770BD9193A63DF14B8A3DAB368A3D3F9FAFBDA7AF783C07BBB33DF61B7BBD65A9013DAAB19FBDB4028FBDE948CCBA44712F3DC0DE8D3C67CFF43C2E14B43CCAA0BBBC853C98BDB663893D71A5023AD3CD003D6186E63C2F58A53C04B6F83AF9CB3C3DB1CCA8BD1A44EC3CCC298CBDFC6CAA3DD141133D2E4362BD3130A93D4ADB293DADC2A73DAE4160BD4F78743D4302313D1F0FE23BC7D9F63B69E42C3D3F2C943D1D5065BD86E193BDEDB25EBD2D831CBD11EC003D7AF1B03D5A6796BDFF5AB3BD9F8CF9BA4B20FB3CB5C5EFBC2AB896BC1B4E9BBD91E161BD9F8B7A3D339647BD07A1663D94CFD7BCAD4A68BD53AF8B3D6E3B76BC258BA2BDEBE5AF3DE7895CBDA1728ABDD708CA3C4FADACBB0391D0BCA104893DEEBAB0BD7029513CF33C6DBDB408EC3CDEBEA1BD0B2B053D222CB0BCE6C68ABB691C1DBD9402543D320BD83C4583823DDDA16B3C1E5F463DEFB746BD59CC85BD9E7C9F3DE14E5C3D420DCEBC106E7DBCEC1A573D274F1EBDFA71283CC9BA8B3C299DA93D25E40C3CD336BD3CB5D62CBD7DCD05BB89BC45BDD852B03CA4FA9E3D12E83A3DE2AEA7BD0C40B3BBF26877BD4C1DA4BD60E6E9BCA20B8CBDAD844FBDAC263FBD37F02FBD23D722BD421B223C32B14ABD631C043C19AF523D157A493D88AAA8BDFAAFE03CC62C9A3D4942A03D74BF083D99509CBDEB64ABBD907A2C3D342889BD420B91BDE63035BDBEE5743D1F3386BDA2DCAE3C08E7A33CD037A83DA47EB93B216CA73D7C7BB83C25BC203D6FDA843D574BD93C4ECEF3BC997800BDFE46943D81221E3D5E2B24BDF126BCBC97B3A3BC39419F3D03889BBD2638B2BD814B203D7DC783BC6848C33C2ECE503C6585213CD31D083CE139823DD51AC0BCDE0737BD07BFA9BD8737C23C39E3FD3C4AB44E3C71DDD13BE612323D82DE2CBD90FA8EBD0C67D1BC533CECBC7ADF2FBD9A9848BD37C8E0BC0CF517BDC7C17FBD96D4F2BA68ED01BDA2AB56BABD6E4CBB7282BC3C5CCF3DBC03B984BC014D4B3DAA6465BD082BA83D441050BD03E9073D4478953C969D1E3D2BF5943DE3418EBDE6A7B43D5968B0BD767220BDF691D5BCBBEA60BC35737CBD2037FEBC216561BD6E8AD8BBCC8CA5BA97E3A6BC909E1D3CE2896E3DBCDD633D99F3A5BDD28E0E3D4D1F803DF626C53CB0733E3D786BD93CC3325E3CE4F925BD7A89A6BC18B968BD4E9F38BD76C4533A5AA98BBC3081EABC952CBB3CD80357BCDFC33F3D1F3700BD83DE4DBDEA36973AC35F0A3D51D67B3DD4CA983C79850EBDD347353D554FAEBD8888213C301E893D9D11393C50F991BC6CDAE53C3F5C583D54A75B3D004E2D3C2F73A8BD0D8C4A3C52FBEEBCDBFD7CBDED05823C4BC8E23C2E6B953DA84BA6BDD30D9C3D534D993D3BFD183AF4C72BBDAB9086BD45DD4EBDCFEB1A3C53725A3DEB137BBD43960DBD5C84AC3DBA292FBDD59C59BDBCAEA8BDC05B673D5B40943D0AA000BDA149063CD41DCF3C4B21AE3D3BC0E63C007FACBD53629B3DD367AA3CF6311A3DE9CEEDBC7C301B3DB2DA8BBC17F8ABBD8617A73DF73E243DE5122CBD22F80ABBE0D7BC3C90CD103D2A40083AC2796F3CF1D2B0BBE89CA4BD1D66523DDCA6ACBB2F18033D070DF2BC0815B43D7CE923BC126135BD110718BD096813BC1165903C92E7343D2371283CFBF7A33AAD3A573DE2360EBD531D023B9A79953D3591AC3D0242543D7543A13CF0A4A33DD9ED623D5002E53CEC0BB2BD31E0A93C048190BDCA3D32BDAC30B13D5F6049BC6530CEBCF679233D48E8BEBC2DD7CB3C923DC4BCD5ABB4BDFEA2DABC12641DBDE79D40BD58E7AF3C181FABBD2B5A24BDC6DA023D9A1FAC3DF61EE73CCFA94BBA148F90BDF61942BD3E4537BB157B0D3DB0DE9ABD28F2933DEC7C81BD7E129DBD1503A3BDF9F234BDE53539BD78E5AEBC9FC7D33C326591BCA38D64BD39E4B03C4CEB4F3DD050DEBC8176073D3C1D76BD6DFF383D1CFF5B3B672E8BBD1D81133DF569ACBCA754DFBC051A4CBD0D4396BB49DD32BDB63B233CDEE0013CBE55363DFAA5DE3C0275C1BC9E5C18BD7E79063B28F29C3D6A361C3D9778923D404B8EBD48F5673D172651BDABDCCDB92564333D1DFBB1BD7797093DE0E7A6BDD531AC3D873C3D3D2108793CECF0DB3C8706AF3906DFAF3D26619E3A08599ABD72B5013DEBCEA2BD158B6B3D96B0D1BCB336A03DC8EB45BCA4CCDBBC0ADAD13CF2B5B3BD106969BD78D3CA3C1E56DE3C8CA869BCE4D9563D397955BDAE7D7E3D79F6543D941871BD0C3F993D09191C3D90C908BCD984A8BB8A47763CC64C863D7A22713DD074FFBC23DB883D1F1EA7BDA832ACBD4A0483BD6E8BE43BE1A44CBD8915503C66773EBD1302ABBD54E59FBDFA13843D08327CBD7582733D30443ABD2254953D96189D3DDC93EA3C76C0A2BD75BF6ABCEC410E3D31587ABD6802B5BDD82CAF3D01502EBC614AA3BD56FD36BD0CB391BDD034B9BC4F0C393C559BAABD51B65CBDD833843DED9F5F3D035246BD3E676B3DC972803D77E5A03D12368EBDC8B9953DA300363DA6C3A03C1D293B3DE7A3EE3BCE4735BDC8BFF4BCD59484BDCCC375BD738A00BC38B38ABDCCE7A0BAA4432CBDE8C09F3D07D90FBDBAB06F3D23866A3BBC889ABDA4B82B3D460B75BD0E4801BD4A7351BCA443433D71B98ABD6601953D585C93BCFD213DBD71895DBDBB6022BD4440B83AF55F78BDC97A993C68D1AB3D308686BD6FCEB3BDE0F3243DE7C90D3D9750BDBC9A2C903DBDC195BB5DD3063D6981973D391D913DAC15643DC56393BC260D65BD09908BBDAB8DDEBC6F439D3C4BF9473CCCBF603D74A9CC3CE090A0BD1C1284BC44B98EBD374B10BDEE15853CA0AD53BDEF62863C2013443D9309233D8516D6BC573FAF3C5721823D585E4CBC4EF470BD20E8CBBB5A64A13DA856963D3A57A1BD62A097BDFC7C653DD31801BD60E7983D3743293D22698CBD7AD8AE3C2671BBBBDB4FE83CC5A984BD3261B7BCCDDC733D306A763C7D1E88BCF74BC73B3E63343D12FA893D7DC7E4BCB6A087BAFD2294BD3538063DA3CC423D61039D3D5F0883BD9C35EBBC499DBEBC629F943CB79295BCC78B003CCB3E0EBD0EBA64BCBE779ABD46454A3DEAFA243C035870BD2899653D425DB0BDEF72953DE86420BDA4360ABD50008A3DBCB4323DFAE15FBD9C7288BD16E968BDDE5815BDBF0879BD3D16813C3D47D33C60A43CBDEF9F343D05C2B8BC71509BBDEB91503DEECE583B2E039EBDC8868A3DAC7A24BD3894AABCB69F32BD9316913D9611983B12ADA6BD5DF5533DCFF6923CC7EED7388BFDAC3C302CE0BCCE6883BDB39D80BD188BDCBC8BD9D33C8071973DD5D70F3D78AD38BD5D0360BD22A8D7BC6F6B59BDF61891BD6ECCB1BD4D0AD23CF7626FBD1380203C446E973D819780BD3171AF3DF34C963C16540C3D56C29ABD7E4297BB9917B53BA99FA1BDF9E997BDD386EE3CCC2F7A3DCEB401BD0DD984BD8F2C50BDE7BA51BDD27992BD70AE7CBDA1E4913DA9BB76BD9926753D61A15EBD054AE4BB2A19AD3D462D9C3CB0BFB63B277D4DBD8BF98B3DBF752EBB40EA403D6627B4BDE1F4B03D74B752BDD1258B3D61840C3DFF4CAFBCAECC4B3D3DED863D770399BDAECB80BBD4C987BD94685E3D85D65FBB92B2F3BC6C64113CBE413DBDC2F4D9BC2904753D5F9F2B3BA96D80BC29E49CBDF3B487BBE12D29BD1285393D06DE963D067298BD3C70883D079C63BC1F1D593DD432DABCE7F7FDBC32E6CCBC8E3D3DBD4F315D3DACA8A73C6194D3BAF43F2CBDB3C461BD9D4C4EBCE46EF7BB8A9604BAFE65883DE38F84BCB0138EBD81DE86BDD0F386BDBFF088BD631D51BDD791443DEF572FBC7F41A73D5CDA643D4FFA693C8B37BFBC0CB2E1BBE734AEBDD9F9A63D160CC6BC7F11513DCFB358BDD03E50BC947744BC586C8F3C8601443DEA93073DC88B323DDAA782BCDE1073BD7CCCAA3D7802ED3CF7FF413D59E846BDF60977BDC23957BA1B611C3D8D9445BDA863A2BDB3EE983D59AF94BD172C12BA7E319D3D6B47373DBE538C3C711C93BDA757B3BDBA0CFDBC4B2A2DBD318E6C3DB93EFABCC56F00BDCADA963D14CA74BDFA98F4BC843BB13DCE25CF3C7554993DC37CA83CFE5793BDA9BE663D226D343D3D28F8BA9A41903C3198593CCC7B86BD93FCB039FFF2A03DD6D490BD2D5E6CBC15CD573DFC02113D4B566B3CD1E5D13C96D9D3BCE8842CBD1755A13D21431CBDA5AE93BDE911FA3C45B3973D4C95F23BC67E393CEB4D973CADA9A13CA3D596BD694A59BC027A9BBD9AAD843D9218203C459A40BDF437953D65A77F3D7C8A54BDC18D56BCFEE637BD1FD2873BF0B13BBCE2B2ACBD5B043F3DB64DB43D35C86A3D8C575F3D873F5BBD333C103D9EB13F3D18F2B43DC83EA03D38769CBDF5DC183DAEA2823D4DA9A43DEB589DBD0E1197BDB4AEC1BCFF96403DD969B0BDC7439FB9F2F908BD1E3D42BC3B4D83BDEB6481BD0B3988BDCA1B08BC3F3480BDD37A093ABDCAA03D018AA6BD11FB333DF040123DF95C263DE1DA823D00908CBC45CDE13AE7F24CBDCABF983DF9A9F83C8527913A3080B9BCA24C0F3D7B4B903D01AF8EBD546588BD587D33BCDA114F3B44CE9EBD0393483DE380A6BD046BF0BCAE9E00BD315C30BD58A0983D237A1F3C88502BBDC83FB3BD4D0703BDB92C9FBD8AF30E3D16AE89BDF3DEA03DAB27153D0C88033DA0A72DBDBB95353C43B9883D655F82BCF6931CBD52B29ABD3D2CB33DF2F1A33C97E322BDB1B71C3D688E26BCBE3C07BDB210843D1FC4ABBD903372BD110B363C0978AD3D73A41B3DE21D38BCED5EA8BD260788BD0B25033D1E66F33C1DE75D3DAF78A7BDEB89D9BCBBB255BA450511BC6B8022BD170964BD92333E3DE938F23CF4CB64BCD5BFA7BD4FAF543D85275F3D1C09EFBB07EA68BCB12442BD95F3A0BD4B7A7FBD3252883AAFF93E3DABD864BD845B92BD0AB4BF3AEA5322BCC18F373D4B2E9C3A2B60673D3438A43D2AE43FBD32CA5E3D50528BBD106F6F3DDE6B9E3DAE11983DB1C7F4BCADAEE838668FC8BC8A1DF5BCA4F56A3C15C974BD8BADB4BD80A61CBC6C3C9B3DF99190BDF617A63DDB89D4BCBC9927BC341F003D00758DBDA3839C3DCF5782BD0DCB8FBDEA06073AEEDB46BDB14909BD64B3953D1FB218BD3A849FBD3C3633BC9FFFAC3C81B1683BD6DF9CBD872AE5BB7A7B183CB7E31BBDA25B9A3DFF656A3D0E8BB13A41F647BD94EA493DD29B3FBC68A1AF3DE2CC833D735A5A3D94AF3C3D8986EA3CEB6A023DAADB143D7DE0AC3DE3A38B3D728DAF3D3D71963D91FB67BD6E2DAD3CA8E781BDA7F0213C844386BDB0A3803C7DA543BD7FEA2CBD23E6013D066168BD5431ABBB044C28BB09ED8F3B128E663C9896783C76F0B23D353189BD7B9125BC9654AC3D594886BB6FDA2C3C7E60CBBCCC12BFBC7E59AD3DF91953BDDB6E643D1C0D5EBC4D653E3DF9989EBD60C7CBBCF9AB92BD3A69A33D6F6562BD7A738BBCCB53963DB7F3A73BA7546E3DE1E2ACBD2F7C963D15E685BD65F5A03D93CDBCBC025AB43C9176713C53DE5A3DF532A3BDDB7B00BDE32A753CB656673D4696883CB2D93C3D8669243D71A8293B21F64EBD585042BDDCDDB43C91222DBDADA63CBD0E30233D130971BD77FB5DBDA3F835BDF13FA2BDB65252BD1E65ACBD8DC9A93DE04C4A3D2F3461BB84588CBC586A98BDCB5C1ABC5A9FD93CB9E3953C5FA179BD4D7A893DE7EF643DFA8CABBD62DA053DEB33AABC53ECFD3C88318D3AFD27363D191B803DB73256B9EFE809BDA4D34FBD452FDABC92D2733C6B3E38BD7DA96D3D53C6B33D3F7F913C61D8253D4BA10C3D5D5763BD3F9C8B3CC91D98BC8FF3B33DF776B23BE4BF933DC51855BDE6D9B53C27F2433909664C3CFE7272BDB83EEABBD457F13CA089603D79BD8D3DE780DD3C1E8F66BD870B67BDEA8B183B380E4CBB62EEAEBDA7884B3D3F7B8D3B20EA8F3D967061BD733072BC0553A0BCF1DC8CBC1E7B80BD06F75BBD1F1D4FBD7738493C3F60913DB403833D4FC91B3C42A914BDB27EFEBBE37DF03CDF3032B81330FABC1D29E53C7106913C895B663D857592BD886090BDA7AFE33C6F922F3DCBE4B43DBCCB57BD44601CBDEDA099BDEA28E9BB7120C5BB93FA0EBD935734BD9D010DBD384D9EBC1316E33BAA0F293D626E12BC82DF603C5E94853D8B022CBC29EE313D9ED60D3DF99C213D5B46A23D2DEAAB3DEE93E53C4FEA613C2AFA023C46FE613D68EF793D55A198BDFB2F4DBD156D31BDE4805BBCA8E8853D083CA03D4F1A9ABD80CDFDBC34828EBB935BACBCBF98B3BD8CFC31BB9A3C39BD3731A6BDC30C8A3DAC16523D275FB03D3347393DB0E3923D25958ABD1978B43D3BA8663D92280D3DE1881A3D22C9A33BC62DF2BCB48399BD55B0A9BD192E813D703420BDDEE76BBCA487EEBCD0E6D5BC8978E0BCCB962C3D56275ABD9B55C1BC29B596BCCCE888BDC60F62BD217552BDB78257BD0EA3A5BDF8AE96BD18141ABD109C8F3D7388A8BDA9078C3C18526F3DD9CA3A3DF75EC7B9574C94BC286327BC5CDC163C2CC48EBDA96F06BDB0AE443DC2A291BDCD31643C47AA683DF61A6F3C5751A4BD77F976BC313E8D3C2D3174BDEEAD023D0C4132BDB66A0A3B83B2A43D893B12BD811BD8BBD1A060BD91C18F3DDB28863DC9269FBBA891ADBDF61925BD0F96B3BDF1F98F3AD9515F3C2D8895BC8FC2B1BD2949A5BD37E392BDF01F123C5E8660BCFFBE90BD4BD5B3BD4A2F8EBDF868B83C389509BDF01953BD5912533DABAC4A39502A053D6B9B463D14640B3DA435B33CB7A40C3D9D3B713C25145C3A7784363CF70DA23D640F48BCE78CEE3CAD4A223CEFBC30BB54578DBDD6B6063CF99C38BD226BA93D77B6983D9A021BBD3D4E6FBD18C0453D80DC6DBBC92C233DA9242CBCEF97883BE4DD80BDE5AB41BDB63BF33C82EEFE3BF625B2BD53FC053DC72B6BBD3D2D233D1A50A0BDEEAA9FBD12F706BD201CF53C11F76EBDCA414DBD5E781B3D5B24FBBC3799E0BCB1A463BCDC5EE8BBD667823D7346493D72E3CE3CAD42FF3CFEE6B3BC8975E7BCADDC563DEFB886BCFE0F863D1498FB3CBA1C52BC720AA53D65B98FBD56BF463C8BC5513D442E103DC55BB2BD563B21BD976AB2BD579F443DF971E83C182D90BD3519893D1C14903DD0AF983D0D7F00BDDA132BBC4ABEE13CB5D940BDD3FC89BC67CB863DE2D609BDE103BF3C3E14F4BCD755883CEDC313BD53359BBDD190D4BAD3AD573DE5C521BD1A3403BCCEA419BD717EC5BC913446BA7E57D93B1BD43A3D58F59B3D964B47BDF539293C10179DBD3F33823A88CBB2BCA57D28BD1AD063BD43CE9BBD9789E53C0225CFBC2AD6B5BBAA3F973BD24648BD943DFEBCDECEB23D8788D4BC9500B03DF9E32BBD45FE2D3DB382ABBD6A0EFFBC0B8DE83C580F093BE003813CCFD729BD2B94A7BDD54EC83C5C039E3DDA9EA83D5ED740BD25F55BBDC95083BC6A93323D637C6BBAA3E92E3D90D19C3D961FEE3B46FC413D496A093D70C08C3DCC3C1ABCF6C4683D53338C3A506127BD1F103BBD599874BD8A72FFBCDD8F2A3D4B8C9B3DB6D8C5BC8022ADBDA5009CBD30C46CBDCD7E09BC0DA4003D47D080BC6C41A93D46C9AA3DBE0A3DBD564263BD832DC7BC5E98533DB439E63A343BF3BBA3B0083CACB60CBC8787323DE9D7F03C0E81D53C51EEB33DB50AAA3DB842943D33D0A5BDA30BE5BCD7E3293C1BEF8FBD672F73BDDB56953C8C8FB0BDE262703D7B35D1BC432EADBDDA0606BD43F11D3D3E72923D45395EBD9FD0BDBC379207BC2F5BFABB273548BDC2B200BD81C08CBDE1BD5BBDAAA950BD00EE28BDB7E730BB198A933DAD709FBAD3E0893CEE08A53DD2E9203D13EB9E3DFE60AE3D07F6033C83F22F3DA78671BC9DF40D3D539143BDCC71D73B5048B3BC0FEE273C464D243CA3B20EBCEC1496BD66C0B13D15F2C8BC7E3B2B3DBCE64F3C3490833D0B15A73C9F741D3CC89FC63C9751AABDBA35553D4AAB69BCA3521B3DBE495C3DBBCFB63C6CA281BDFA89413DEE6340BB4C9DC4BC5A59953B2ECB9ABD72FF9CBD24E1843A18D5BFBB4CF2AA3D61305B3D56BF483D50F6BABCA5E765BD03AD1D3CC5C3AA3CB3D8C338E03A643DBC2EB1BC8467D83B53242B3D60D233BC09399BBC57A2ED3BB591593D390F5BB953CEE7BCE8F258BC70A99BBD1A8172BC472980BD887F81BD8738433D2889F03CD386EEBC0B349BBD806F9FBD10D978BC145A6CBD64EABCBC0CD8873D6F808E3C458550BD520648BD9CF68D3D96B588BCD563033D405511BDA2C57DBD6ED831BD4D4A72BC094874BCD753BDBB07C5A33D4189163D82E2853DA17196BA8AE8003C4B50FE3CC30377BCB16B8FBD14ADC73C10F3493DBF11833D59CA873D8D57A43D9D3FAD3D26D894BC739C84BD8E64173D039B8E3D28295D3B5120A6BDA965803CA758243D66939E3C0EB8463D2F074C3D194868BC2261C73CDBD627BD06855F3C26BFAA3D99EB61BDA2E7333C7819153D828D743C47F8F53C8CA7B83CB314E43C5A5A3CBDF7E28DBDCDC6D83C7110A7BD9C96643DBD553DBCDBF38CBDE1E72EBDB6596A3D3ED9CD3C27312BBD46D2403D31631C3DE38C2BBD0279AE3DA543A4BDA8FE8FBD3E4397BCFB301BBDFFF2A73D11C98DBDC2EA223D2026B83CD715A8BDA4AD91BDD9F5A13DFF87B33CBB3C013D5DFFC0BCD4C75EBDC1C3603C21A62EBD9EEEA63CF21292BC9874ADBDFD5D85BD7BF50A3CAE2A05BDB9DEA2BD868AA6BDEBA10F3D30FC9D3D6EFDAD3D6535623C60FA82BD1D8B543D4B0679BD2D04C6BCB16BABBDDCE463BCBA6C01BC88BDEBBC04F52ABD371494BD23EE593D85D9A2BDD1E40F3CC4D78BBDDDDF8D3D06DF35BD3919B3BC1AFC4B3C1777D13AE61CF1BC4020CC3C3EB49B3D3339283DAE971BBBA254A03C39E0BDBCC90B2F3DF0630CBB3DDCABBD23F687BD32DB06BD34DE8E3D7E870A3DA472373D382F0BBD3EA28E3DEC53983D870D99BD06EC8C3D56E1F63CEFF0D53C6435603D891F4EBC5071F4BC7F5376BDBE02D2B67C4E3ABC6AE6443CBB4E073D96FD3D3C48DEA73D068632BD527AFA3C8ECB8EBDEB72FEBC89494FBCBF394BBDE4B1993D7ABE203D5A30283DB3834E3D093F9B3D1CC4423D2AA4433D0146B93C769E13BD1B06813B6D260FBDA9953ABD4393623B3988A6BD3BCDD43C04979F3D704E82BD90BC4F3DB43D623B2BE08EBD0AA5933DD7388E3BE85CC4BC145DDA3CEC1799BC800B1ABD1FE1253B5653CD3C0EF40ABD596D5D3D4028A23C7FF82ABA946B89BC8D9BB2BD748F6C39B8DE983D00D4ABBDCBC92CBD333BB9BC4066A23DD66BACBD5B39A63C7AFE983D631F803D047B4C3D3CAE243C732D8CBC91ED023C6ED68F3D65C9763DB0D5AC3DFA60BF3C5E07723D24B88DBDEFAA28BD83952A3D009E9FBC0A2457BDF1B71FBD0653DEB92D5C79BD0559D4BC751C38BD99BA8ABDD56EE93CF32A303D41F3373D16E51F3DE796A83D6B04B53DBAA61FBDF6EC043DE9BF6CBD723F8C3D4EBC9FBD678FD4BC6C6E9D3D72365FBD2BD013BDADFC2BBD645F9ABDC6A6BCBB1C8476BD8DCD303B1CF821BDD770A1BD272EAB3D836CA2BDF0E68B3D59A0483C68A09E3D5C83FA3C32336ABD79BCA03D57DF0E3DAA9A4DBD0743853C81EEC43B394E2DBD7FAD223D10D1883D4DD2303DFDEEAEBD505B553DFAA48FBDB65AD63C5CFD0E3D8F4090BD77E45ABD97A87A3D275DA8BD064332BDA6F8E1BC30D83FBC243B6ABDC0399C3D7D974C3D70540CBDC2EAC2BB198B05BDC8949BBCAC06033D7560943D7CCC6C3D26AB96BD279D703DA9880DBDA661023C4F849C3DE2498CBD4474E13B24B4F33C70DB13BD32FE69BDCF8A883DC80B83BD171733BDB0FCA7BC0EED3EBD9FD1AABD99FE033C46A0803D6D60793933DA4A3DD0C55D3D60019F3C339E753D9F486E3DBD5900BD36D1973DD4DA723D3006E7BCC0698A3DD5BF553D710C543D796799BD366E94BDB13B27BC7A3B883B77CB273DA4FA5ABD3DBA5A3C2329083D7CE14D3CD1C2553CD7B5C1BB5C9187BDC5B2B4BC12D2A53C272A3BBDFAC208BDBA887E3DA7FFAABC9974633D87DED5BCA8AB9FBD4AA12A3D4D53A6BD4B3514BD9AE8AFBD6D4286BD676D8DBDF7B8F23C5480F6BC3C07813DBEEA923B926240BD4C1FCD3C7F029BBD7D4A9EBDD2AC423DAD5E8DBC77436BBBBABF193CFEF52B3D34D7A2BD0F0A6D3D5D5207BDD71579BDA02199BD4BD4803DED784ABDA19396BD2373B43D63C18CBD88549A3CCC032FBDC0E6A2BC41DE783D33574D3CB2630CBDAFA5B13CBE02303CC4A68DBD44129D3DB808C3BC38687B3DAB61F03C4DAC333D02CDFEBC3193B33D1FB13D3D089516BD0412713D7A5FA0BD2C82D33C75320D3DA99230BDBE848F3DD438A5BD3099333C3CE0883C08D407BDBE7C1FBD633262B96F8B20BCAB8CE83C063D3FBD3ABCBD3CDE26483DDD6B753D4ADB643CFDA3D13B8949A53D4095E63CA11103BB05538FBC88C431BD991CB0BC430706BD11D525BDCD258C3B85CD29BCDFB1B4BDDF414C3D5139F93CEA808FBD512E353BE4736DBCC53694BDCCC7793C7A3380BDE6E5F43CF8499A3D552071BD4BBE8CBD21BA863D4A5A13BDF185E5BC1D53A5BD89AFE03C9EBC953D715DF5BC9627893C404E0CBD5F28593D1289523D9B31883DAF29B13DA9D74BBD86629F3D9D57B53CF1CCF63C757ACBBCE2A21F3C860AEF3CE77E03BDA0A254BCDAD375BD0F1E01BC2648523D953E65BDDE8DF33C2166793DC7C6B2397E706A3DA284963B2A2C08BDC929D7BCDFBAEC3CC91983BCD62FE43CC988883D7DEC87BD4258063A2902913DF9B319BCE8A6C03C31878D3DAF2C8ABD711B96BD09108ABD34EC16BD78E5A23CD6B0D83C911D67BBB0C9FF3C125BAEBD608A173DC0A963BDE7608EBC56FD9E3D1D3AA03DD4FDAC3D9D469ABD5004B1BDF53E00BDE211ABBCE19E70BD5CE8FFBCD60812BD18B8A83D8F1C5BBD26B061BCE84227BDD67D9EBD1EA61D3B349A40BC26783CBC50926E3C542F423C80DDB53CAC12DBBB2252013DA0F51DBD888EBC3C6F4B1D3B516485BD36AC89BDDCA2B0BC9ED9BCBCB95A9E3DB8BD083C08B4BC3C9812A33D362D8DBD7598B0BDC0D7E4BC35632A3C40FD293C2FE7B03CBEFE55BBD3F031BDCA6C21BDC0C8ECBCF6A8E63CCF64E7BAF9F6363DDE847B3DC13FD63C668AAEBD2E24DEBB0029763DF0FD073D022C76BC86C2173C9399AE3DA6FBABBDB22A563D1577C13CC56DD43C4EBB1E3A8B1582BD0DDC77BC359740BDB693E53C59A83FBD0BEF90BCB895F63B4F0534BD6E8C32BD73A8AC3B866BB4BDFCCC54BD0F4BA63D2EC0653D9627B73C523D82BB3D09EB3CDFCE20BCBEDDADBD1DEF92BD0EC3173DB7D1D0BC35AEB6BC0F9EA93DF816F6B935E1713C0F2511BDC65E9F3D9C2AAB3B7E54DC38EE0E833DA629A1BCC8BDA6BC25E7B23DAED5A33D9664CE3CC401803D4627ABBD0F12D13CE7A245B9711E3F3CC4B82A3CE1072EBC15BE6F3D8DCE89BD6F0885BDC34C943D52137BBD773D91BDCDD735BD5689CE3CA412A2BB73496C3B240EA33D422C83BC534B36BD727531BC127062BD5B886DBB0C8BE93CD221953D3AD2253D64038CBD92465ABD6A4105BDB43DF73C08F7AE3D064981BDF822FA3BD046AD3D741E9F3D92544DBD9B75773CD699033DA73AAB3C2CE32ABDCC0A2C3D44581EBCEA4B883DE9F29CBDBE05793C89F18C3BF85A62BD90718CBD8182353D28549EBC946019BB3508FF3CC8FE24BD4D47C3BCA09D123CEC68B43D752156BDA543E23CB2A83C3DA61DB2BD5D1ED23C1BCF173DB08107BD5CE2683D9BC816BBEEB1AEBDB94E92BD884AD73CEFFC86BDADD199BD1EA865BD603285BDC4A706BD7BC95BBD411D53BDCC650EBD34CBAEBD4E9622BD31B4973DF688A93D053EB33D1D59903C420C5A3D6B63B4BC4A676ABCCE6A5D3D8D8A7CBDCC8AB4BC3C9425BD1176ACBD0AA606B9C1392ABBBCDD56BD312D083D4F349F3BC494E23CB43E3BBDDEAA653D724D8C3DB86F18BCADBDC7BC0DC0B8BC7E8508BD637E13BDDEFC333D293FAA3DC3E02A3CB1EACA3C721191BCD9A028BDF2914B3DA080093D827CA6BD946E563DE92D71BB4BCB873D9D7B633DCCDC19BD3D80E6BB5E769DBDEFB087BD4D778DBD4C21833CFC9C0E3B359379BD8FC08EBDEB0312BCE451353CD6B9B93C0A85173D561711BDFAC59EBCC3CA763DD6A2EB3C1728A3BA91C3363D69EA973D2998503D823860BD2370863DAA57AE3D4D8CDE3A83B39EBD257CAB3D2AB3D2BA127F72BD21828BBCA5BAFA3BF41526BDFD9CEE3C42534F3DDE0629BBCA7229BC98365CBDF5EB9CBD00F0A9BDFE5A94BC268D87BD0AED063DFA4D6C3DBB7ED63A2EFC97BD546A6CBDA7948E3DD15D2C3D459FB23C699C923C8AC49ABC5C4B2BBD7D8E5C3D58F7813D7560803DC53181BC9EE3E0BC6398A1BD2860153B20EBA2BD911C4BBD2852C23CE618A53C6C880E3D2E07AABDEA026EBD7E8E61BDCD30223D220E52BD6332A73C140692BDC8C64BBDCFF0A33DEBAD71BDA55C7C3D94F0513D6CAD2E3D19825D3D9BDC263DB32F00BD601295BD314C3FBDA4D074BCC87083BD236C8BBDD5A79DBDB9631C3D8C5421BDDDF7A53DDB63853DAEBC99BDAAF59EBD4D32A43D71BF953B5614793DCF9051BD0FEC8B3D58BE9DBD5E83243D1CDA503BA8B8113CFFB5B33D0DD1113D1D8F783D63DD293D70110A3BEA019ABDFEF301BDE09181BD7570923C5B51AEBDDF5B63BD79CFB3BD41DD2BBDD1CE6E3C81C58FBC2285EC3CD2F67B3D3C64433DE5143FBD446870BD6CA1413B7CFA3DBD9C0C2C3D679E4CBD4AD31C3D03C99C3D54B430BD831F52BCC7AD95BDA690E33C89D95B3D3DEED53C243A43BDEBEB2B3D03A5BB3C76AEACBC8D3B863DBA81733D4836923D7D74E9BB799F813D12CB4A3A02B54A3DEE2B2ABDCF74543DB40715BD2486893BCB42B63CF69658BD8BDB883D2868E1BC00D6693D6F6996BCB39F2C3BB6A3043D10A3573D201C2B3D454026BC9C4872BD2FD2E4BCDAEB6ABD8CB0D4BBF90FA53CC317AD3D475525BDCCABBF3C61A5D6BC941A83BD9A182FBD74A17CBD34FF6B3B16BE6ABC7CA32D3DFC27A83D29B8823C20F6B03DA10F683D1AAA98BD1D20FBBC48CC083DEDFA00BC5E65E6BCEF80923D128F263D1E6E44BD19C793BDAACBA23D8AFB3A3D0FD12D3D71EA17BD9BA7A03C156D9E3CC3E2823D0F69443D520D62BD1A02CEBCD6CB84BDB9C19CBB8827A43B4950AB3CD699E8BC9BB3933DA2DD5F3D9581B83CCD1A4FBDF33E1F3DFAE9393D01B27E3CBA96C1BC9C85A23D636DCD3B73A1AB3DAC5FFABC999948BD2D490D3C2CBBB13DFCD7AC3DEB8B6CBC6C0798BC76E60BBD484923BCA874F7BCDB0E8A3C2E2184BDEDF23FBDF3589C3DDB03B13D72768E3A93ED983D310036BD21ABB13D878DE0BC917DB3BADF2F843DA98E2E3D9446A23DEF39903D4EAE30BC7D075BBC200F5D3D498177BD87FE8FBD128F6D3C3FA7563D18C497BD31AEE3BB833F853D40A6AABCED148B3CE91E053DB0B5DABCEC76713D7D25A9BDD2D766BDD23B803D27D30C3DC5DC9CBD07F40B3D87FCB03C0D6D8F3DB179583D2265813DE12D383DDF9BA03D7BF55ABD1E6906BD8ED043BD50D1D93C9F154E3DB09A5B3D8B1058BD83BDCD3CD1FEC73C7348C33A5D999A3CA4D5813C60AA5EBD25C1383D67B383BCB46AA5BCBDE78F3D07E591BC9A212EBD0DEDDCBC7C42A13D50D48A3DCAF0183D7E1D523DD29B93BD210F813DEB465DBD48C5AC3D1B6EBA3CD795AE3DEAEE4EBD317849BD462979BB9DD08ABD17B2A03D7C57433DB798AF3DF73CA03DE3611CBDB4A957BD6768A5BD2F4B8D3CAE4D97BD6E165D3DAD7F20BBAD59493D3E4455BDD117423DECC333BDACFB333D2CB61B3C3FD2C33B106EAB3D344F143D6D033B3D328B143D62EEB9BC8C681F3BE37660BD6E0599BD4D1307BD4C5E9B3D233033BAF4FA90BD7551A4BD53FD493D1489833DB6DD3B3D17C3893D945364BD5DFAA03D063374BD367EB23D741652BCDE3F75BDFC9E2DBD51EE3B3D0CA147BDD538D3BCC2E668BD70143EBC9F0643BDA67A74BD5B6D143D12B6223BE374B13DC2D743BD029D1CBDE67F97BD1CCA823DA1B438BD931E88BC9FDE60BD9E328CBDE070523C9C34FD3C88836EBDE54F58BD2CA4133D11389FBD72305BBD41027ABD8942173C4B2044BB661A823D5B7B87BDB41A89BCD29FA03D08F2B03D0E2E04BD1008AD3DBB75AFBD3CD880BB340B8F3C68CE313C139A04BA04DA8DBD7D066FBDD2D8063D356AB1BD33D0973D06B8DF3C9833683DA73952BD1AE9A0BDE7D5A83BC5216FBA541C943D30BFA03D870B8B3DE224BD3C4659D6BC9035AD3D5D046A3D4B1489B9DCDA39BDF8E4A0B985A576BD606D4F3CD3278E3C193C4F3A609E1DBDD139E13C04CA60BDE579AB3A1AE7093CCCE1AB3DFC0235BD62DEB5BA82E2C3BCAA9B113B55C69DBD48019F3D2F879D3B6CF08EBA6153663D18DB933DB66701BD7BBEB03D07E6833D689F72BDCF9EAC3D2DB251BD3682B23D04F8073DE36A9D3D54FC023CA19AEDBC8A398CBD1EC79E3DA3B0A1BC1F91B0BDD99E2ABD9E4851BDCFCCE5BB4F8CAABA09096C3DBA0414BD1C140DBDA8239D3CFFD7A9BD256F95BD6904113D378115BD8C249C3DB83FA6BD32E94F3DD4649D3DDC7D4F3A3FCD5BBDAC2F16BDE9F26CBD92F9293D25BF453CA3F74FBD0A4A263D2C9831BDBA05883D2CF488BDD48828B9C3AF8E3D79D259BD093378BDD91257BD612085BDA5D29FBDC2A5E23C44599CBD180877BCCC01D1BCB817AA3DFCC994BCC39AA1BC3CC93EBC8B62B43D991DABBD2AD3A43D1E293CBDB841583DBADF4B3B9899B0BD2A80FC3A243DF0BC29D8A73DADF062BDFD83ACBDBE5E173DCD5D2F3D714A86BD2804543DFB3FAFBB80C6453DDED2793D90468E3CBBA4A93CA132A23D8EF63A3CADBE70BC996800BC66DE52BD4CC13B3D4723AFBC69F515BD1E224EBDD0716BBD322009BD0B77733CE51280BD93592A3B8D2DA03D480B953C3AE4103D619668BD39E25E3DA9C655BDD90D8C3AD1B2A33DA0B08ABCF19883BD4179963DCA6A21BB3AFB4D3DBC40A23CD9B38ABD1F7DEAB91869DBBC66DF3EBDA29ED3BC2F80683C41CFA53DD9A84BBDC2388EBDAF3088BDDD3E7BBD69D882BDC3DC503C176A24BD3D60BC3C0A0668BD048EFD3CA91E0DBC8B693EBD7DB4A7BD763EA93D1A808DBDB72D94BCEE62813D0C7469BC3531C2BC34FDED3CF6048BBDA086893CBA0971BDFBC4963B6CEDD03CCE2F2DBDED68013CC08E94BDE16A8E3D12F306BC89F1673D7ED5BF3C7B4B2FBD0D48813DED0D85BD320713BDEDCB953D7A4207BD7B2294BD97619A3DAC78723D8080883D70DC85BD0D1A8F3C06539F3C35EE353D2978AE3D007400BBC6BEC43C48A8AB3DF777F0BC294B273CD70596BCFB942C3DFDDB69BC441881BD85152DBD00BFB0BD18B9A73CF429D0BC43C50FBCB9CA8FBD243A343DB614FBBBA428843D17F81F3A2A328D3D1FF00ABDE1C29BBCA8989E3AF88AB1BC6E80D23B009B503C5F352DBDBBF911BDB1DC14BDE35D623D4FE7013D8C664FBD1FC28ABD933D5D3D99A4A9BC1CAE3C3D045B6EBD9F74B3BD4625773D67AF423C9BF788BD710A78BDF4B7213DC458A23DF5C9953B887B093D9B6CEC3CC74DF93C845D333D37258D3DCCD97F3CDA5E78BD0F824DBDE8CDA0BD6DAD443D26958CBDB9EA273D48B4933D9649543DAE3FA13D7B2285BDF35130BDD4F588BDF08779BCFCF24DBDC07A0FBD6CDD863DD7EE41BD11F2233D98B2A8BD0ECB8ABB90B4EABC1F25813D590AB43C944F8EBD51FC9F3D6FD22EBD7A07D93C852583BCD45794BD22C22F3D3E6C50BD9905ADBDC4C285BD065076BCB03644BD5928A03BD2B0743BA018403D5D69B2BD1426A13DF213783D2582B2BD39A7813DF0E534BD12F9653DE9AA39BD1C36A5BCFB3B183D2DB1283CCE9D82BDA91F803D4817023D3D7782BC90DDB63C13864E3DD56127BD782CF23BF67415BDE8271EBD25FA3EBDF708453D9DF80FBD3A67223C9DC445BDA1AA033DABF3BD3CAC50823D32A8693C0AB465BD1050323D449DAC3DF93FA53DDFB662BDA093A9BC23DA10BC23715BBD7CC4993D2EA85B3DF10EEBBC9C5508BDCD58B63CD53194BD9AAFE83C50456D3D83398CBD35E50C3CA1ABA43C68E175BB6DA299BBC86D673D40BE883DBBB7603CAC272FBD1BC6493CE2B1A93D39A704BD09A8B33CFEAB2FB9D0C86F3D3532063D8DBBF6BC304CE8BC18B21D3C66C7903D56A3EDBCF734D73CD549E63CD22082BD01649DBAEEAC2DBB8EB49A3D68E7253DEDD2FB3B24EC89BB9444883DC1151ABD4147263D3F6B403D6B8351BD1F98383D04B5E83C3D5F8BBCDA07573D7843A13DD9A6B6BA53E3763CB81DA03D379D4D3DC584F6BC27C3523D06E1823D9BA3833DBD25E43CD2F036BDEC90953D97C217BD1587B1BDF279893DDA70E7BC12AFD33B10CBD43C661DC0BB7306AC3D390A5A3D7A836E3D9C1AAF3DE96D86BD520AA03DDBA0B7BC0191DABA782FEBBCAFCE2D3D1018223D939043BB636274BD3AEBB43B3AF0223D7C3BB43DF61FB03DC9E050BCF1C114BDB3ED76BD51353C3DC497EF3CBA1B953DC937BBBB2A2F9B3D5E13633DB68C813DCCFA733D6F0A06BC5361ABBCD76A67BD6F327F3CDB1CE4BB729D9B3C88F6B43D7CA4493D5071C2BC51D1ACBDFCFB263DDCCC683CF871E93C19B2603DF16E1F3D40BD72BDFDAAA03A29EB5ABD5BBA9FBD0A2545BAE3FC163C96628B3DE7D7FABA23AC723D6C2014BD1150E63C2F8D90BD46372FBC4B9E37BCBF9C92BDC95233BCB6FC72BD494E3C3D1E95DEBC3E3C8C3DC98353BD5BA69D3DA57A4BBD84C15B3DB0AF2EBD4CD34BBD13F2F0BBB4889B3DB18F6D3D86EF04BD146EAD3DFD78823D7B9298BCCF8363BDA108A4BD024A04BD66FA88BC294C56BDCC8F92BD83D1683D35F382BDA9B0253D4D85B33D8F0F3B3D2578B1BD3F55903D0E906DBD0BC0143C95A483BD7AD0BB3C9628903D1602953D9D7B93BD41AFACBAA905ACBDDB1F95BC102F7DBDD6416ABD18C68E3D811B843DFF42AC3DFF75B5BBE09298BC71A0B43DBF1F9DBC762794BC66278A3DCE4A80BD4F3BA23DA560043D28D4DABC469A913D112288BC5E7675BCD4C90ABD35BD483C98F6BF3C20B34D3C141683BDAACF2B3D08C0EABC1DE591BD1A1386BDD4311CBBFA4A00BD810E1E3CCC64243DC4B2A43CD74D65BCAA4F6F3D45E816BDF01188BC5BCD993D3574D73CAB36A03AAF2039BDFE6B973C6FF03CBD091CCBBA2D087A3DEEEA083D0F5C9D3D1C7A63BD461826BC61D9ADBD5A070ABD338C0ABD3E52553D33E0AB3D6785B93CDD0419BD2C7367BDC61489BD1094673D7662993D7804383DE8F41FBCB38B763D335CF2BBE913A4BD9F1C8E3C3166E93C8B8F463D8FB78BBD07D8363D5768EC3C30D5A4BD53ECE4BCDB4A8D3CEA7B883DED35B3BD3037B7BB8A4D78BB89B2F6BB1BC2CDBC5A3D093CDC77273D5979963D11048BBC5327B2BC43417B3AC02CB43C9364723DDDC529BD6B214B3D0B958ABD415286BD0EB67D3C857181BD402BA43DCB818C3CADBF23BDD3D4533DEE6AC1BCE1CB333BC794D73C2B32EA3C3E248ABCEB2B76BD7342473DE54A4F3D4806943D2F12313CDCF587BDBA119B3C73AC9ABD140BD9BC04D8A5BBA723A23D10A8C33CC29129BD6BE2743D82DD53BD4B1FEFBC8223AF3DA063373DD4B997BD95739DBC68ACB83CE14CC5BC3310B03DB67A01BDBE26B43B53CD423DCD067B3DFC8A903BCD51073D2EA46ABDBBE3DF3CE0D0113D0183F2BBADB6C63C5A03173DBF75D8BBEC4D16BB1A53B4BD9409883DEC19243CAEAB953D2B37803D19064E3D63A741BCC129763DA5DB8ABD7748983DA8B5803D28F086BC227E9E3DA99FEEBC1273A3BD1ECD26BD0D18A23C93CC93BB031B16BDC4B15EBD78E915BDFC91E1BCB3D2563D41D579BD333561BD3C4FF1BBE6B85FBD4B51013D88D281BDA7B67D3D197FE43C5F5D9CBD4125AE3DF5DF80BD7D24DE3CAA3954BB01A8EC3C3082323BF2D2C9BC6385943D6FCA4EBD19CEF43C344973BD8BA63E3CE6726D3D67A149BD119CA63D2421A13C5C42D6BBB9FEB43DB34478BC483AB23DC6DE4CBD59D6933D4D7E43BDA5FB983D5DB4F33CB74A8BBDD4A894BDFBCEF9BCB6E5FA3CB3E5333DEE90A03DAF0D3C3C6D4E41BCA1F393BD459683BD7F7E6BBDA910ADBCBB3485BC16D98DBD7A41A73DBC9341BD483DA5BD59FCA03D4A9C07BBC27F9BBDAA47893D5A348C3DC1DDB33CCC1A233D8A63D83C87A3423DC76C043C6D1F473DADC98C3B640C1D3D98A9703D8CB417BD56669EBD51B20CBDB1C44DBD8C05173CC6B46CBD50EF76BD2ADE943D618CA33D0A261ABC39A56B3BA32F813DBBBAEEBCA29124BD4626FC3B2BF696BC0C27723D2B489E3D0D0005BD4BFE353D0716AFBD2F1758BDF2B0023D64C8653BE9D78DBDEC88FBBC44D9AC3DA34D8F3D377DA3BD22926FBDACA06BBC2067573D0B1624BD34D68FBDA99C323CAD3EADBD3A0E3C3D9DBB2BBCD6AC2ABBFC3BED399C066DBDD42C86BDED799D3DCBF7163D5F0694BD69AC7FBD2E3E4CBD63F206BDF6189DBCAD0A193D3F2C80BD963D7ABD54618D3C98076FBD917F933CED67AC3D718A343CE910F73CBB1E733D6CAD733D9C149C3DEA0A8EBD298C46BDEEF3633BD0456EBC1F8980BD34A98B3DAD2D82BB1CC47DBD49E1903DBBCDFB3C0075A93BCD17823C387EA3BD9C5DA3BD9040A13CF29E723D504A39BB4A2D0D3D9C6CADBD3A12C23C2B4E22BC5FC5593DA07FB23C087F25BD56BB0339875D15BD9C7D4CBDDECD373DD112503DE1359EBDA95E99BD45BAD8BC8345513DBFEFA0BDB49CBB3CE3583D3D209AC23C8B2D84BDC9C21CBCDDDA3BBD548B8E3C9269803D29B06D3D08D644BD55BF43BD15EA83BD96AE3A3D1F5FC33C8E1122BD6F846FBDD3D78FBBC6C2423D9A83FA3C20E41D3D7B3188BDB450603D82DAC8BB61B7D3BAB50E2ABC417078BDA6519BBDB72D75BDEDE57B3D65A92D3BBC3F10BD529D37BC2E96ABBBF143C33C1C0BA53DB11E073DE2BB133D564985BDD63A813DA172AABD3E3C23BD26C9FDBBF2C58B3D6C62ABBD1419803D898455BDB4C9B5BB94BA4EBD788FF13CD7AF3FBD610C89BDC580B03D950787BD8D29843D31A71B3C2A379E3CA0D9543D585286BD2CC4083C4D938F3D5164753D42F79B3DBC0F13BCB3A536BD9E4AA8BDE1623E3C5987B1BD550A953C4851F7BA9848913DBBC84A3DE4414FBD8D95423A06E7CABC845DFCBB7D119E3CC7138F3B5DA6943B9BD5993A8F2D323CEAC62DBBBA64953DD71542BD5039843C61AD23BCAA5E20BC0BC279BDCDA29E3D0BF07C3D83C4023CA484953D880E0ABDA56CAEBC5C95A0BD3E1C4EBDF203673D395AA3BDCAAAA7BDA852E9BCC310A73D416A3B3B6E51B03CAE9B94BDFD9DF13CA4FB2D3C4891563D63B56BBDE187A13DBBDB87BCD6D186BC61F5ACBD01CAAABD243759BC9AF09A3C26CB333D422F99BBFCB09ABBB6ED953DAC2C91BDCEB0C93C88889ABDC3614BBD59CFC4BC84C2F5BCCE7C8B3C3DAB823D4120D03CFBFB663C9B20913DDD608D3DAEF4C23C167F4FBD6D1A873C6843613D1384B4BDACB025BDF624A13C847F7EBD69CD3A3CE6A6A4BBC7EB043D87E7CB3C538012BD32DF6FBDB499D33C809C513D063EE8BC9226883D014734BCE6C9CF3CD6C6BC3CD5C5A5BDDF16A3BDD6DA64BD58E9A0BC70539C3D80F930BDD0037ABD54073FBB83582ABD5F398E3C69EEADBD0FFD83BD6D0E59BD5D0E8DBDE98079BDAA2ACBBC6FE5A8BC256A0F3DF1772FBDAF79943CE0D458BDB881DD3A405062BDB5F9843DDF247EBD6575E03C0271AABD886A563CF2AF83BD34328BBD6262663D9EE5F3BC7D5F96BD1D200A3BA46822BD953E82BCDC5DAA3DC8BEE0BCF79840BB1B1A833D5A93ABBCF45AAEBD05BB76BA36759EBB54EFA7BD767B77BDEF1393BC12FDA13B8D50A73CEBEF613D38CB543D8A94763DD1A50B3CF984983D12FAB33D3202073DFE3E25BD44CD0CBD574570BD8E78DC3B9407B23DA35660BCE336B4BDB54290BCD558A53D73D5863D9129F8BBB445883D863FF1BCA0D8103D166A9DBD69B771BDE6B68DBD5C19563D71C67F3B58AA9FBD4595193DB751A2BD630C8F3D214C4BBD1FFFEEBB596387BD9AB2ADBD2DBD85BD3712733DCE8002BC59478E3DCBBD543D681FA2BDCFADAC3D32AF18BD586B383D286278BD35575D3C5FD3853D875B93BBAAE48ABDA37BC9BCB10ECFBC7B05DF3B18AA8DBC4DB6A4BDB2FE45BDF217993C61C729BD9094493CB82F673D76BA383CBEEC1DBC3E3C79BDD512083D308692BD7B6B483D7F9669BD0DAEB23C170C1BBD17BAB73BA097A43D3BAAF1BC4BD5BB3C91C083BD21D898BDAFBAA5BDAAEDB23D8B72413D46C741BD3257F4BC6C71033D7755843C3DEEEA3C6846B1BD60C296BD02B331BD710E393D99D1A93D68FD91BDCB51373D8FE41EBD8A8E6D3BDB36503D5F44A6BD0F2E55BD95A75D3D9ACDAF3C84DF043D91D351BDBD96433D4FF0D23CE24A273DD5E09D3CB395ED3BCA4A78BD87587DBD4ECB5FBD7365503D7B1C143B1DE46D3D8C5836BDD4D876BD85B0AFBCCE2AACBC863BF5BC2675AA3B1B1743BD8F3DABBD974A4C3D171C56394B4C933D444CAB3D82FC2CBDE8BA2BBD3C0AD63B50A7AF3DE58C8ABC322E503DB839173DD158683D3F2D063D3FB4093D36320CBDCB7936BD576B5A3D82B0FDBCA4126B3DDBD795BC7100DBBCE99003B97623B33D672702BB9A16443D51ABE8BB183663BDE0ACAB3C84FBD53C9DB0BBBBB5AA623DB13F92BD7F579ABDD7E6113D6641B0BDEC23803DA5B6AA3B0F75A63D9B2C69BD2F8D64BDA7B2A9BD64983E3D6D1767BC713E97BD37BF7B3C556BAB3C0B648FBD3867B23D38047DBC5C8494BC4135A8BC8F9050BD087EE5BCCB17A9BCF97116BDC7AB923DE3B595BD29B79BBDAD58F83CDCA484BC26E221BDB58254BDF72EA0BDDC0CCA3AE517593C65F4A83C0172493D4414F8BC5DE1943C812FA7BDDFF1AD3D62024F3CA41DC43BB5C6A3BD1E35753D089B463DE0F97A3D402732BD15BF093D60C1963D7249DCBC3E162C3D7354F13B5ABC993D6FD0AA3CD9A4693D89C1093A32B6A63DEA920D3D00CD12BD6CFBA03DC20763BDBAA57F3DC2A8A83C8FA136BD3AEC333DCCCBA93CD5C9053DC91C1FBD6103863D20F6C03C86330CBDBBE61DBDE34BBCBCD97D2EBD1F7CC13BF891F9BCC4BBA73C427F823C3FC180BD8B88583DBF51F2BC1006403AEF0DFABB5AA6473D0B9D313C067CB1BDAE3E113B0DDB86BDE94782BD749AF1BC3E482BBDE1D8573DD2C2A63C0A5B0FBD32C38E3DF124963D7D089B3C6B6C353D62F6263D86E4A2BD5BBD7B3DCC16AF3D63E817BDC2F71D3D1C4C8F3D7C1568BD0803B4BD1F2DCE3CC7648DBD8CDF3B3DC3D495BC4F8F57BDFE67283DA73F763DC785673CC2FE9E3D7A8F463C6A9E3D3D01F91DBD409996BD3A7A823D087DA1BD23E8AB3CB233A63D3F056A3DA2C351BBD22D043D9078333D480F54BD255B8FBDA49124BC0903E63C4FBA873D799FA1BD54C6123D471974BD5E9B3FBDB12820BD06CAB73C076198BD2122E5BCC12A98BCBDB2CB3B0ED85FBDCE9A9B3D6A13AFBD4A288EBC1A46A0BD56428D3D515A143DFE0C203D165D2EBCD53A333CB50D103D609CD8BCFD39A93DA1FC9ABDAD3A9EBCBEABFCBBFC08F6BCAAE49A3D8F724D3C39B098BC98EC4EBD82B713BDC729873D7750A3BDB11E9FBDFC709C3DF6ACDEBC4B4FB03D144A95BDE0F855BDDC9B20BD992421BDFD6711BDA5392CBDB68CEC3B3F2B7C3D34FB2C3D2A178E3DF0B719BD7A9E603DF497113D377679BCCC0BE83C885046BD7282923DF2F160BD4E233ABDD38308BD965D6BBC3D135ABD9BF0523D01B8A7BDE43C823D987A4EBD643E593D288A9CBDE1581B3CD0C5573CF44C8EBD753DA33D2C57A23DD83CA0BDDED7A43D50A2223D6D16973D023C9CBD9E15773CAFF215BDBC7D76BD9197323DC3E3A5BD0D7B67BD7BB23DBDECF497BDB5CE89BD63DE673D942889BD1EFA023B906C31BD399D39BC7D6E88BD979D713C6861323D82B7E5BBEC77723D36B19E3D6552143C0D49423DC098AD3D7B6109BD98EA52BD90731DBCBAD9993D5CD18FBD58F3EEBC7D60A2BDB08135BD85DC8FBD78E0923D935B8EBB728CEC3CA5CBCABC99D83DBDDE5DFDBC725B823D82780DBCF18B7A3DE58F2DBD756940BC18217EBC0663A0BD2B6613BDBD19A5BDF28AB5BC368EF9BB100176BD694AD9BC4615B6BB18CD483D60FB99BDC26266BC42C245BD806507BD1D309ABBFDDD283C2316BABC49868EBD7BE266BDB91E423DB344633CD426983DEA02143D68B693BD02294FBCE4CDBFBC3DFEA1BD297271BD6C3FAABD16A359BDF6DC953BDF0C4C3DC9953DBD75F5ACBC67F9363BD6A800BD008E0CBD76185FBD5EE29BBC20B583BD32C866BD1F99B23DDE8C963D9EC996BDEAC2A4BD259D98BDE1313C3C95A4BD3C8BE13E3CFBD9CB3BA8A2F0BCD97E703D173494BD8259B13D20A4613D84DE9D3D8CCD4ABCEE4B063D9608723C24F31F39BD026CBB95A67ABBB666A3BD7A7DEE3CA313AD3DD65091BD71BAFB3B9CC892BD4091A7BC24E0AFBCF80FB63CC5D82BBDA39F40BDA4F9AD3D86C02EBBFBB6713D0C8871BD75628BBDFCAA3ABC266D0FBD7EBB0BBD545D99BCC36977BC51776D3D15F631BDB25F99BD41CBF73B44911CBD642440BD43F7A7BD3F263ABDD6118E3C86AF4F3DAD2E923D5B435ABCE95D3E3D3961A4BDB52182BDFA844F3DEF2DB2BD7CC73F3C0F2EABBBE32621BDFDDC013D9765D5BC4D9752BDF624A2BD6C624A3BC8762F3CB84827BDFD97F73A0397523DDF46E23C3D31AB3D15F19EBD9D6324BDDA0B753DE3D495BD35CE25BC0296283DD6A8943D4D5A953C9159D1BCDED3AABDEBDBFF3CECF49C3D3792463CBCDFF43CB70189BD4F2F8F3CA7FF35BD822D4C3C1FACFBBCF15D21BD9EA946BD9E38473D21E9F73CD19183BDB69921BD62A3513DAE1582BC72DB113D1DD417BD5E4422BDAC6C42BDA0F171BD264BCF3C6C1C793D4429373DDD3F1BBC22B0463C0391A63BEC11723D0BEEAABD32C1B9BB07167F3DEDA6DEBC7E0E423AE4F0A4BD0FE427BD941DAABD3A6B4A3D77A77A3D569EB7BCBF9C8C3D2A8779BD41675ABDB0B49C3C1B0DF83CBC7E903DB91B2E3D50D25CBD9F9E66BD301C9D3D8BA26CBD68CA3ABC42706D3D5C3AD63CD9099ABD79B09CBD9A7C8FBDE452253D7DF462BD6DEE013D1D44723CF6E7923C1E85863DD11195BD5623823C2F9C223D2DB4793C040047BD11245E3D9F07293D8C7C2BBCC8608E3D1808A3BD74A60C3C679CF0BCB2276E3DF90999BDDD312E3CC702DCBC2CEB193CE7EA7FBC6F4B4F3DBA862CBCC080A33D07688C3C8C4EB03D1C7E4A3D2C0BAE3C5FBBA5BD3A37BCBB925D8A3DB968413CAC3899BDB85A76BCF56C863DD796713D846B803BECFBB03D9F413FBD31F601BDCA41D1BC0EB087BDD449B0BD05C89ABDD19A86BC5749B0BD6A3A46BDA012463A6FCE11BD84CA143DCF10A03D45CB0FBD04291D3D2AD27D3CD4ED5B3CC95CDFBC87F2023D5FE19B3DBA917BBDBFE87BBD67008BBD5829B33D6728EEBC3C8D003C7AA91DBD53459CBDC805503DC507763C6AF1DEBA682C92BD3B0187BDD69274BDE29C5CBDEA3D8CBDEBAD84BC7498103DA636C1BB59B49D3CE4E4C03CA67D36BDE3B809BD669FB43D950390BD8D8097BD239AABBC297B963D3CED133DA87E79BBD693983D4918A5BD10A3AB3DDEC84D3C14AD9E3D953D7D3C9BE3B8BA81F059BDB59249BB8704AC3DFD7893BDC1C557BD8114DBBCFC42D5BC86FA513C1CFD1ABD571532BD4D1737BDE3EC0E3CF30CCA3C455285BD93F55D3D0E88B43D80E6453D336DA23D632298BD00AD243BD43D8F3DB5858C3D7239F5BCBE933D3C88FA8EBD4FF503BD30A98CBDC8768C3D8C254B3D37F997BD36D5A8BDAA837FBC03F1243C316430BD55BF0C3C34F833BC2440B1BDF93D2E3DD9B0493D90763FBDC58E8BBC92A97FBDD936813DA5E0A3BC0E0035BD581B84BD1CAB48BD8CAE413D5194133DD26D8DBDF54A873DE1D03A3D2D00DB3CE991B1BDC06D9D3CED7BC9BC06AB8CBC4C37D93CBD6266BDA57CA53D1C40A33D6CAE9A3DC850D83CE265A1BD91CC1FBD2E98F03C07F4D9BA6C3BA93D2D9E6D3D777E99BDCEA030BD75ED56BDDE535B3DD4853EBDB0A8A33D9AED803D8966B03C27B4A1BB557C84BC407528BDD6E07FBDE7BA1B3CF589A33D6917403DE1AB16BDB8C9A93C617C0E3D9FAEA23D87DD83BD833E99BD139510BD63BC953DAB4B3C3D16794FBBB649A23DDC9184BDDC062BBCBAD470BC7D5422BDEC780E3D5DF5C23ABF8C9ABC7C7EE7BCAD7D553D7B8308BD46D4D93CFBD840BDF3BB783D0504A03DEAE4113DF155C93CF4C1AFBDEF00D1BC26BB7B3C9D8908BCAD56943DF849053C6D15BFBC5469993B91FE66BD845494BCC437B43D5D9A1F3DC635743DBD9F873C18AF3A3CB4C192BD129FAE3DA18656BD3C293DBC227C173D373C63BDE6378BBD90BB99BDF0DACABC405FA7BDD9478ABD9615883D3445DCBBD322053D4A7E9BBD74B3913DC040D13CF76B313DC364B4BDD1D69E3DC94B8CBD1B91063DCAB481BD71400C3DC648D93C68169B3DCF5364BD095F943C155AAABC082E3B3DA94F2A3D4F52553D88335FBB88983EBDAE78BCBCB5246B3BF239AC3D007D4F3DBB33D2BC6538B0BDA150913D031F593C8A33013DAEBED63C50FF063CD7E551BCF1B2DBBC2D592CBD9381AD3C89CE883DD08D993C679444BDED3548B9711E083DC1781D3D232C9A3B92572F3DA275053DA4ED643D3E0CB53C83F8553D1AC43B3CE8C60F3D8111D23C8A59AB3DA34151BDA5979BBD0F2A3A3D2C55ABBD72622CBDBF2A9E3C5B8FBFBB99596D3D7ABF27BBECDFAD3DE0559FBC6DF06C3DF40686BD042087BD02CFC13C238B813D47F092BD7A6C8F3CA42BA5BD5EED50BD8C7BAC3C815D89BC1E383D3DA365043D72F0603D1CEB643D873F9C3C2035843DB01689BDB480593D0AF620BD0B3397BD8D50A23D62394FBD6016AABD3C4B43BDAAB9993D0B54D13CA5A1EFBC99C8393D5E9584BDC8D6F0BC3018A73DABB6A7BD68CB0ABA0F560F3DA545493DF1019EBDFB91233CB2F8023DCE86BB3B85E02ABD2B245EBD3BC7D23C3941653DACDDB23DECFE72BC9B85EA3CDA2B95BCCE9AAABA7E31143DFB3C41BDA5F27D3CC3EEB0BCA7849D3D9F918F3C224C51BB721D2CBDD386A23D652F7B3D3356B0BDFEE1B8BCC268253DBEBAF0BC3C2F913D6AB4303D3A8635BD95D37ABD0C169C3DD53CAEBD7241123D3A7442BC36AD993D0A722F3D43F0CEBCA94EA53B9968503D7366D13C957F9A3DFEF226BDF20B04BCEDEB49BDE5C78EBD84EACEBB3C6ED83B87A157BDB09A9BBD60700F3D932647BD89D85C3DC376203D917D873DACCAB23D7E5E58BDD15CB03DF166993A1C17833C6F28253C027345BDA5AD8DBD5ABCECBBD9EE353DD8BC85BDE193253D3D3474BC3C8C473D64C65A3A2457A9BD82B66CBD9D5F0F3C313B0C3DC2DE163D1A0983BDCC20213DFD2BA0BD398A62BD2845C7BAB29C9FBB272D093D8664ABBD0A0117BCCD3A543D84E0813C92C7673D6809CB3CFF46CA3CFF41453DF69621BD02087F3DD9F5CF3C7B3A4C3DECF956BDCFAE9F3DB080083C91E98C3DE1B2B2BDDB80FFBC9C45673DECCAF3BC7F1B55BCCB12B3BA7EF50EBDD43F503CF351903D3B09A1BD2BA48B3DA6AC2C3CCB1E5DBD4F4210BDB3E39D3DEBDE3DBC24448C3DCAD174BD8BFEA0BD314994BD34460FBC11C90ABCC8673BB9A8AF983D97A7E2BCCDA1AB3C93B528BDC4C7E6BCE9DB903DE1B5423D5BE641BDA9DA053C85217FBD37B9873CF1DD2DBC421C293D401A423CD48B31BD710B81BD42CBEABAEE69903B2DE321BB6302393D38CA863DF0FF6ABB8191A0BDB13E15BD5E5898BD39924F3D5B93AA3C8568783D08AD09BAE329763D1CE47C3D7CA083BDF013E2BCD1EC803D856B0CBD5C50BFBCA27C0E3D24BA953D7ACA373D5CA402BD70404E3D2D65233D3C00ED3B2921D43C9E62C2BC08329BBB167D14BDD6209B3D559C9EBD17DE8CBC993675BC40C9A43D1DB18D3D7D5D8C3BC25075BC7B4C453D41CE003D964827BD66AA85BD8914A93D9401C43CFD768F3DB96B373DD231433CE441C23C06AD30BB47BCB33C4DF3813DDF36883D435352BCBFECC6BC921E853BDF8E803BFA45BE3CF5B1553D3467723C36CF733D79FA7A3D54E203BDA2A2D3BC14C7A7B9A2B377BDF88F3A3D725D463D30464F3D44A41ABD1A48C2BCB5C98E3D97B1A93D996A13BCA035A9BB4ED1613DADB6903D3FDAA13C81BC45BDA8110B3DB1C4B03C9086FE3B84C8843DF758903D86B4003D067B0DBCE53AF7BC5C828B3D1854D83CC10671BD6228A2BB9C5592BCD157973DDFBB673C6351843DF87F233DD665973DEE79ADBB080A9DBDB6D50D3CF85B933DAD59823DFD008CBD058D033DF4CF863D2342B2BD518F10BDE7F265BC2073AD3B157FA33D2F77803C72F4253DA4A7E13C39DD3C3D0362E5BCAF9F4C3D5999B03DB426B73C7515ACBC2D8FAA3DFDBC8C3D0EDF4DBDF158633C8FB9443B90D29F3DBC3908BDA7DB833DBC0F5FBC335289BDB772A03D0E5395BC24CA903D3673A4BDA8304ABC42A8723D5688FDBC609ECD3C6FCC88BDD9DF45BD0E4FB0BD77A7953C90682D3DA8BF953D9FDC5ABC0743F73C058E7C3D98A7AABDF7C0263D2CE313BD1DB5B03DAD24A73DDBF97E3D127F00BDE68675BC250C003D8A8FEC3B01E590BD53EF63BD74D3D1BB51CBA6BDF82DA4BD016FB23D479AF13AB9AB663C4E2F8BBDB31B54BC3EA9AC39CDCA4DBD031A5CBDFAA21EBD2F5B523D77E6B1BDA472A9BDE36E0ABDA308533DA25694BDBB3691BD1992BF39D983753DDF1501BD0B84D0BCB1E1AE3CD6CD563C7E9B90BD1F4F13BDD76D903DB2FA49BD1B3E5FBDE52D24BBC3581E3D586BA9BDEB38F53CB383203CCEFF093CD7A941BD8311F23B4C16FC3CE07A58BCCC7C8D3D3C7FA4BD29A6A0BD06F0233D6CCD143DA768FCBBE089913CB723EFBB5F6F9B3DCCA8C6BCEAA838BD2A105F3D842312BD58C514BD5C0DD0BCC76CB1BDDF6EB33C0B957F3DF14399BD0077053D7CC1613D78517DBB9EBBF6BCF398F1BC966CFCBC5C0692BD07FC8DBDA95210BD4DABEB3C60C007BD0B631B3D9718213D9C3D6B3D88D252BD2C294BBD848EC83CFB779E3DE1710D3B6885ABBD3456133DB78B8CBA4F66DF3C64438DBD3F3AB0BD336994BDE464DCBC9EB9283CC9CA63BD7C4E2DBD69C9533CBA78B0BD891812BD2A3A6FBD1C9157BD4A5BA0BD08EA843D4163643D9FA40BBDD9224A3D0B3985BCDECCCDBCA3A9DB3BE94893BD96B5C3BC19CE86BD80FB633DE64CA7BD2AEF95BD4E1BA1BDBACE6EBC75DE91BD3AF99C3DB6571CBDF262F1BB7F47AD3DC33E9F3D5995B23D7F26EB3C96456BBD2DF32F3DC21C8FBDDF2F353DD3B22A3D483708BD5097023D8FD6AABDBBCB80BDA233963DFBDF04BD8BF92A3DDDC0A6BD1FEC823D25F041BD528E843D4CD88A3D8C8885BBB9FB2EBD553273BD0E134DBD41ECAB3DE1BF893DE582B2BA639B653D5CD30F3D97FF5E3DA5E34A3D2446853DC2439FBD7084613B1976E5BBEE4609BD918B04BDE1BB743D6BCB8B3D5DA1313DFE9697BCC3F6DA3C9F4AA23D8FAF80BD4D95A5BD05D37E3CE303293DA24C7ABD0E4C59BD6B9F85BD434204BD30ACE63C56BEAABC4273A5BD64A420BD6AEED93C38D8ADBD635420BD96EA3DBCD8E8E6BC65A1A7BD9A5287BD7239473D6C4D1B3DFECFAEBCFE63193DCD9A4C3D349E393DE830DEBB713557BD63E2CE3BAAED993D01D1B43D5D5E29BD5E8D50BDC596B9BC16494C3C2473823D76199BBDBCB7773DAE4307BDF8CF91BCB86D813DBBEB5FBD3B998A3D241A9B3DB247913AB685D2BCCBCB4E3DAA1696BDDFA1A53D4E2AE13C608263BD5BD2D03CE2BF5C3C367796BDE1B0ABBDEC82423D1F7D3CBD93C188BD276820BD51BE493DB37C51BC20E1593D2C6A8C3D386188BDFBBDF63CE4C21D3D711B7F3D60462D3D72B6263DE2CC8FBD52F755BD5A58EA394453A1BDE88AAE3D5B36983B7D5345BC4BB89BBC770D513D3114453D112CB8BC36DF123DAD79A1BDAE3E04BCAA35993CF4BD38BC18ACA53D5690683DE2D30C3DD258A53D1F1895BB8C838B3D36AE6A3D93B17CBDBAC64FBD5BCDBCBC7BDA97BD98649ABD93E8CEBB64F2FF3C0F193B3D553578BD768749BDF08A3BBDACFF68BD34F64F3C912B993C3FDA693DBD0130BD81129C3DF0B0033D02AD37BCF24BF93CFD354B3DC9DC113DCB7A78BD4AA587BD046DB2BDE4F28DBD7343683DAE7C1EBC3DB907BDA0305DBD14058DBDB3D50D3DC3C59EBD1CC51BBC792EABBD5974DEBCA4E83FBD2C8B773D65B4253B3DD88EBD2EC196BB57952F3DA9C7E9BB8F516E3D4FE76C3D69DF7B3DAAE566BD2A8E833D796143BD07E17E3DF9B13DBC47C08D3C731D77BDE54A07BD5A34B0BCE145833D84A88DBDD759A33D92D717BD53FA09BC3EE3293D1315B43D28CD77BC9B2E3B3D4D3B1F3D707E9E3D5E7E36BC9B8F793DA5E012BD95E7F7BCD85C45BDD32D013DA5F43CBD04B05FBDB5F955BD66929FBC8BB0F2BCE0AC8E3D658C763C2566703D5A3940BD46CA3EBD828A7E3DB5202C3D9622233D442E363D97C33CBD834E833D35BEA93C5FADA9BC048743BD348545BDF4325B3D1D464A3D18AB3C3DFD51143D0945693DA0558F3D1D3F5C3DAF73A53D2A6FB23DEABE3ABD03910B3D489876BC5578693D149B74BB4E0B993C9AC71C3D5CE680BD9A9D063C3CE187BBFB88A2BD69947DBD0C7E5E3D691129BD8973953DB255B0B7AB9DC93BE11D43BDD1B3AABC00A93B3DEC8A81BD1511563DF2CFA0BD8A0387BDFA8EBCBC672786BC2B3711BD2A3374BD0A2A913C804A44BD320A80BD9CA49BBDAC22283DA6032C3D929476BC28FE293DB94661BDDBCE9E3DB7D8F23C93C79FBDD7F5C4BBF333B4BD9E02A2BCF5E0D93C42BD87BCA52F96BD2C5FA6BD0422943D47D206BC0BC71B3DDFDC4A3DB91743BD5C48B2BC6E7D8DBD7521083D1FE3643D0B2E973D2A7D01B99AA4F8BB51701CBD6CFC85BBEAB8A7BC0933693D8E2A64BDB29D923DA756313D7E2F4FBDF4A00B3DA18CB33D604D06BDE1D2C93B5871593CF5A83DBD7F5EEEBC90F7AA3D6869523DF73486BD21DF9DBB830D09BD84F2C6BBD20026BD98F44EBC8A7AA63C882159BCA0BB48BD79700BBDBD401D3D2E68AE3CA7746BBCB070FEBC4B8D993D0EDC39BD48508ABD9C61343C4C247A3D8ED162BD7CCF56BD4665933C319046BDC01420BD55904F3D0A4F513D34E9AC3D463415BC63ECA73DB38C183DDF28E5BC8B9A8FBDF21754BC364C073A6E7646BD78D2863DB1B867BC95A9183D6170733D92C1093D729227BD659081BDCF2D28BD3C8713BCF399F43C3E9A1BBC7DD6AEBDBD76A7BD366C8DBDD802303DAFA0AFBD13D4AD3D7E91CD3CD85A06BDB451B0BD8E8BA13D1E835E3D587DFFBB05FC91BDD5B40BBD280B6ABD450F023DBAB2B8BBB155F0BC0255483D94D8B23D4543BCBCDA264D3D1E8F903D4640413D17939EBD76AE323D66DF6CBD253C823D8522B03CB6A1ADBDF72073BD3944663C674C84BC624D2D3CC3E66DBD7712C73CAB8FA13C20A207BBAC116FBDBE08A6BCF3B795BC359B463D3A17FC3CC41610BD5931853DBBE8303D1FE6A53DD73CA33CB7E38E3D1201853CFB07023C1E5E77BD3D7BEBBC1D55253C3D84C0BC470C563DF2402C3DF62C73BD8964B13D8DE518BDA43F0DBDF0282EBCEF6F02BDCFA6463CB575623D3EE6003D124136BC999C213C0AB62C3D49454CBD27F0A93D21FA613D67810FBD090C083D1FCAC63A5F2B753DD82F673D0CBB4BBD004E7BBDAD92513DF74B03BB921D9EBDC87C98BCECB5313D5BF0A33CC98C8DBD8B83A4BC59FF27BDFFC173BC745644BD3DB77F3A8BFF0F3D159C6C3DF0B4B8BB2D5D2E3C0D6B673DF42D693D0CE31C3DD146943C8EBC923D18CAB43D29FBC93C3647833D26F943BD09357C3DE4B2DCBAD7D8F8BC7ADFD1BCC0E22A3D2EF7A4BD995149BDD3E3A0BD9091EABCE9D6BABBCD77993D990A6D3D0B167A3D73594ABC7F09CFBC73CEF93CC697503D22AF543CADFC0C3C01C615BDC6B880BDE0F3743D3DD84FBC7143A83D4DDF053D1369F83C957B2E3C9845243D0F6AAF3D7EAE953DAA2E033D34FF473D1A0C8B3D5CA5AE3D5A05823DA99E893DD1120F3D3B94BD3C27C2C4BCF62DA3BD3DA0A83D5B0A85BD817B833D1945A8BC665556BDE89DE73BA99E563D60EE6B3D5785BCBC4A4818BDE0D9A9BC0E0C3D3D515406BD6DCF203DFB11A0BDAD9D1B3DC1DECBBCC485AABC76203FBD92C8713D1159E9BC6610993DFB131BBD059CC3BC06CE61BD8E65863D0FFF133DA91285BCBC6A9F3CE2BC883DEA0203BDCFE59ABDE55AB7BBF971103BB47CA1BDFAF5ADBD10D7023DF34D95397F9EA0BD1410BB3C6608DF3A9A7A7F3CB6CD89BC8EDA94BD134C9B3D07309FBD561803BD34C886BC0411983DBDB1F6BCB095373DF6D026BC07F38E3D871332BC462F7BBCC6FF8E3DE391A43DD483A9BCC80C0DBDB89B02BC08399BBD53CA28BD1DFE2BBD3EB3AEBD6CEC883D2C85BFBC5E7353BDADAB1FBCDE9F14BD5799A73D583ED93CC5889E3DEA564F3DBBA5AC3C489F1D3DDA99003D5727753DE5AD3BBD3DC159BDFB1CB33D27873E3DDCE79EBD692E623CDD7D01BD96DCD038E7A35BBD943EAFBD4B629BBDDD8FA2BCFB3AB2BDE7DE2FBB4FAAA0BD3E1F3ABC299DA13D32E25DBD40799FBD7949A2BD3ECD8ABC5F7B78BD16C444BD1F5488BDAF6532BC725278BDFA98A2BD4CB45EBDDE88AD3D9470A23D5B0F203D8C515B3D3775A23DDC8A76BDDDDBEC3CA45BA23D265D89BC3087073D662B203D6B1C203D5A9DDFBC450AA23D9A80253D758595BD72840EBD0839833CCD55E8BCB4A1993D713326BD477C9B3C5061423D3526A13D1474003D88683F3D443B843D2EC77B3D6F3D23BC8DFA56BDE3C9573DBCF3973D1CD6633DE07A58BDBF9DE03BCB7A3BBDC137C93B9708433D0B8069BD5BB99B3D9656A33D68847ABD6A4098BD913D993DE27D5E3D7F435DBABBDC13BD5963853D089A883C9BD9453DBD24583CF9C1CD3C4B48453DBF9DDCBC974C13385D43913C41664CBBC2D2CBBC8B909FBDAD140A3DF4CA9DBD98D39C3D4D3993BCD55905BD4FD6393D6FB75E3CF1F7A93D9292A03CC8E2CA3C30AB133D98E48B3D43EDA7BB88441E3D62DCC0BCD8DDA5BDB04D9BBD6BE4D2BC5EC54B3D52ED98BDADCBF7BC484CF8BC7340C33CAF47203C6CF4B8BCA2C3443C594580BD7DFE01BD3570A9BD1A3D56BC89B7183D9689F2BC7A57B63B901D573C5981D03C404EC13CB8B88C3D429F73BD9229013D189D21BD642397BD2DE0203D19FDA8BD4811523D7588A73D56D28C3BD956233CE2A0433D197BD33C9619803DF357973CDB20183DD072983D0A49863D65218FBD67C529BD6899EAB935C6683DCA50913DEEE647BDDA82433DBC2014BDA887973DF1A2F93CBF5C9D3DF88CA5BD2C2987BD92CF00BBC625A3BDB9CB9FBD2B95783DCA4474BD7A20A33D1EF48DBD148F593D7169A53CBCE74E3CCCA6623C03D9123DB181D2BC352582BD6D27A53D7FFDDBBC200C233D2B09683C21DA273C6AA8AC3D92B25A3D7F82763DF2894BBC923290BDF651B2BDE492393D9757C6BC2588063DC03182BD6B5C79BDAB7B92BD415EB1BD8D4BABBD672EB0BD46DE42BD3A79263D822B9CBC6FB48CBD9E7A20BDDC8683BD560A4F3CD885783D128B83BDEBAD96BD2D8A08BD320AB4BDDBBA693D44ED85BDD9FB253D38BB8E3D7FECA63DB911CABC725BE2BC1A1D39BC99C4C6BC8D89BEBB782C4CBD15CC4B3D6F342FBDA855253D72FA42BD16594C3D81D7EDBC9E4FAD3D486B0FBC9FDA0E3DA96275BBEE5E20BD6A8F0CBD4607DEBBA681F7BCB81600BD04010B3C77A5A5BD1B1CADBD87D782BDF76E1FBD9F9CA6BD5BFE663DABD7933D08E0B03D138D663D0062133D7E8AF23CD90E1E3D2F8A373DC9FA273CB6ABA33D8F858FBD38CA16BDFF6681BDE69687BBE7A7AD3D715B67BBF05F1FBD088D803DC2C5523DDFE77B3C5C1D7A3C1DE5A6BDAB6F703DF58AB73CFCBEB2BD8F6E9ABCA192413D7AA43CBC2F5591BDAF8EABBDF2680C3DE3669B3CDAA497BDAB00B8BCBD293CBDC3D6A63D40542EBD1B75CCBBF7A6B5BC92A97BBDED461D3D9EC655BC2D86EFBCBABA2B3D9576AF3D678BB43D8D318D3D8636223CF084D23B8129D13C3D9738BB6924903CF408843DA32CB5BC3F7B4EBD571E5BBD4EE46C3C80781F3C298399BD6A2A2B3DD91C3DBD4F65853DDBD913BD32CC38BDDA4FB2BC04DF813DC196573D4748443DBF560E3DA72810BDC92692BB8228733DFD0D633C958E4EBD58E81DBD239DEF3C6631A0BD6CCAFEBC5C6EF73BC1B659BD560589BD0D8E70BDDBAA003DDF498FB9A0CA083C13A55DBB24CA903C90713CBCA26EAC3D596E4FBCFAE7BD3C828E1BBDD3496A3D2E19A83DDB83803D170B18BD36ED87BD90BB43BDBDC57EBDDB889B3DBEA231BC1EB518BD7926023C74B6313D4B983B3D062EA5BC93F68C3D75D77FBCCF4C073DFFBF32BDE3BB8B3D5532D33C97483D3D497DA23D6D9E70BDFD78943D1E1EB5BCFFF87BBD41394EBC4FAF7CBD907E4E3D0CB8A63D9E484F3D35E05FBDA71F8FBD26BBD9BC80AD993DD6F8A13D051C8C3DB6B57F3D4B3678BC9C18F1BB9571523BFEAF353D72B280BDB1B58BBD92169CBDE5E9143D7FA8013D42F07DBDBF4F5B3B6D48ADBD802BD8BBC922C1BCFF02883B12C6C33C0CCF4F3D73F0B13DD541563C1CA565BDA0320FBDF41387BD3AECAB3CA87A53BDD91CB73CD9B326BDE58A00BCC0B784BD66B89FBD1407983D05FD7FBDBC75D63C64549A3DCC6D9B3DCF4AE1BAA43F8BBCF4BE983DADF480BD0938ADBC14D7AEBD0171A53DDC8129BD631FB3BD86C1AABDEF17263D46FDD73A770764BD43C6663D0484933DEC8956BD87E989BDCA5959BC74B365BD5038983D9F932A3D26D7A83D06B6373C3C2F00BC269A373D93413D3D6E207EBC2E38163BBFD234BA9D117C3D9751A53D619A163C9A59AA3DA8058A3DD1DB603DCAB1943C811414BD0EEF33BBDA54D7BC4CE91A3D75BF25BD99601E3D00540DBC34AF753D898E5D3D88E38B3D873AA13CFC415A3D86B00F3DE436D2BCB16B95BC064C463D07164DBDE759223D664AAFBD8C53B13AC0483A3D926277BD396173BD6F96AFBD8D51803C539B5EBC9F43A2BD4217A5BD4144753A436055BC808752BCA58D19BD479873BBC94DEFBC67915A3C5A0F4FBD6B346F3D971DAF3D608685BD324FDB3C77FE8D3DE34C22BBB0E3703D31C6F8BB188C0BBC1C5FC93C38099DBD51FCA23C222FB9BC884A853D41606ABD2CF32C3D4C5C3EBC234BABBB406491BD449D503D7ED85E3BBF651EBC2E588E3D9FCD9ABDEA55A13D56C6AE3CF406BFBC841990BCA24831BD4B2889BD1324653D0D2EA23D0245403DE3C47C3D675F2FBDE28FD1BC76CF65BDE89DDBBCFF9D56BD0FD4D8BC096C083DBCA6003C560C79BD726398BD9FB2B33C1D94B13C991C8C3D1E485CBB24F2133C94B64CBD1DDD8E3D07B8A83C1CD609BD22A582BDAF7E8FBD5A22373DE5B7AB3DC8DE823D84B01D3D26956F3D9D34353D707F303DA3967A3D849DB8BC39FA83BD01CA32BCAB4575BD401FA2BD6730B03DCE65ABBDCA9AB0BD85549E3DDA421A3B6639043D6CFC733C9BB495BD5ECE543DCBD618BD5932A23D3688B83C149DBFBCEE7DADBDFA2216BD91E6293D7602B1BDE43892BDB9B580BD1FDA0FBD9F85503DD13469BD89C189BB3EFDFF3921EF213D2679023DE1AC54BC53B7A3BC37C6AC3C044E833DA7ED2DBD1F76A2BCE7AB98BDE712443D61236BBDF12B91BDBD9F183DA60185BD6641243DBC267FBDCCFC233D3A2186BD06A36D3DBF0BBBBC505A2A3DC18B72BC6C8D633D6D2F273D7D6195BDF2AD6CBC403486BD304B7A3CF81F60BC5B3F583D3465B53BA51F0D3DC43E1EBD0E4AACBD0968C53C1FC684BD6C0B813DA1DA353CAC5A27BD57C079BD5714A2BD59F8FDBC7D95DF3CA73491BDF12B043D584EB43DD7EC6F3D461089BD7FE699BD1BB7983D42155BBD9C43673DDEBEAA3BDADA95BDF2DF9DBD10AE43BD43BF763B1428753D332A87BD51F5CF3CF105683DD17BFB3C5719B13D67058DBC817820BDA661653D7CCE2F3D4090A03DB3B9E43C80A7C5BCFD6A323D9673933DCE41883DA67844BD06B3883C847079BCC39F263D8A781ABDF54AC13C8AF486BD9F5BA33D4C5A7B3D5AB6A83D4AA1ADBDBA90A7BDE2E1E63C9E18D6BCE07082BCEFD38DBDDC24543DB090E43CEDA6863D76696539115F343DF79A46BC0D1784BD6AC2993D7D5C39BDB47A9FBD1C94993B1B46843BFB3C9B3DF33C4D3C0B2ED4BC585C923D4AEC8D3D3F1FBDBC0491953CA3E354BC7AE017BD946340BBA8069ABDD3918F3D6E54B2BD12C7BE3C3AE9A6BBF443343DD0AD6A3D9A65EC3C49D95A3DEF5DA4BD19C765BDE87AABBDA3FEB7BCEC1B893D9196B03DB835E33C80E2B2BD046535BDD010E8BB33E09C3D753F9D3CD92F9A3DC4923ABC67134ABB7DF8D13B15B9BABC9FCF793BEF9AC4BC0B2E8CBDCD8EB7BCF223993BF2F6203DB9CC88BC72B280BC5712743DBD8D55BD6AE32ABCA406BBBCE61F953D0811B13DE4EC8DBCF68A6BBD102C63BD6BE2AABC0732C63C0154613B94D9053DEEBDDABC1C1BADBD258EA0BD38EF123D76DC9EBD91EE8D3D7E3521BCC3A1EE3CDCE938BD2EFD2EBD089B4A3CCE548E3D33A911BDB6C3313CA147E5BC79E070BDE8C27F3DC733B13DF9BE313D1C53943DDC20A83DE6D1B43DCEB78C3D0AB67CBD36E8B4BD1FF21D3DB545C33CE10B3DBD0A4667BDED7F5CBD60AF15BD12E3803DDF91C03C223E103DC306333D9C9B84BD8E2D7CBDD2D7AF3D646F8B3DF9CA59BD6E349BBD50ADF33CA00BD23CC0FA3F375FE754BDF8C55D3D2783E63B06DD96BC5E411F3DCED4093BA7AFF83B42A7A2BD7AAFBD3C1D2DAA3D2DA728BD3CAC313D31EB563D1E147F3CFD4E853D3C33EDBCACD3AC3BCB4BA83C5F9EA3BDD69698BD2CA1AE3D6E3AEF3B965EB03D9A211FBD79A885BDE365AABD8B76A13CFB0014BD101E8D3DA9B3333DCEAEA5BD55B1B13D13B1B33D47B298B92DF183BDCDA9993DE955383DE57665BB2D484D3D91275F3D2E3B82BCE10D74BD0280B43D9A038CBDBEDA2C3C8A023E3C26F6203D2F3C7A3DED9DB13CD29F843C4FE57B3B1A0E993D691A0CBD2DB0E43C02AAD43BD5CC84BDD1A460BB81F0A23D20D30FBDADCC43BBBDC5653D407A48BDB4B6323D12E036BD4E717E3D9537923DDE010B3D06B9EBBC3718423C187193BD969A3ABC0A1B49BD73894DBCC696253DA45ACABAC7E3A73DB135E0BC03B01ABCD6FFD33CD3C4EF3CACBB173CEA1EA13DD4609B3DF825713D3163683B5E1284BDB4C823BDAC2707BD1D3DA33D46F9623D718162BD952C633DD4F0C7BCA10175BDEEF614BD576EAF3CF2B0DCBB05A49A3DF7CE413DD3AE98BDC421ADBD4FC5AF3D8B58463D627A9E3C453A783BC26E9A3DF099B03D3C2AD13C49C04BBDF7FD8ABA6E4AEABC7ACAAABDE2D2743DA0A4DF3C695B9EBDAE01A4BC37DB11BC900D8CBC15C221BD1E7C80BD229E6FBD6A10A13D501C663C7C0DB03D07DD7A3CF27F583DDA28E4BC3671383D28C347BC3D3C633DA57CCBBBCD0E103C7612423D9012673CA841953D09E1983DB3FE6A3B982BAC3DBB7C17BD2C86F0BC7015B03CAD14B0BDDE92EA3C439EA93DA98771BD7BB77F3D3541ADBCE0A7523D5F82AD3DFA75A03C10C9903D1257AB3C0BEA9A3DE551563DFCEEA13DAA028E3D1A8D94BD0419DF3ADC4BB33D45AB5C3D2C248ABDADA668BCB546843D25337A3CB773B2BC1398113D97D186BD94F767BD3273AC3C6F70453DBCB6863DC15FAB3CFC48183DE79E76BD3D7C99BDDF903DBC3BB051BC1086B93B25DA7C3D6B65323DB4459DBDB1E5953D6228A63C583B9ABD858DA1BD948EFFBA25FB94BD1FEC5A3D0E54013D8A868BBD3D129D3DC3E6AF3D089213BD470A263D52A48B3D715750BD9AAE7E3B26C49C3DF6C6B2BDF74D98BDB9E0F1BCD46FF9BC17FEACBDD185D7BC5249D2BC62BE88BB007C04BD5D6D71BD8684D1BA5CF844BCED199FBC7B95A5BC6D95303D709D423DBDCB32BD5CBA5CBD9574793D3CB19ABD48E3D03C0FBC61BD8A002B3D0AA23FBD6785963DFEF25FBD02BAB2BCD4B6CF3C7D4E93BCEFA564BD80962BBD688725BD6E62093CB7A53CBC1A7286BDFCF0B13DD63D87BD8ED19E3C0C6A8A3D4BFAA03CFD6D26BD6D52ACBCDFFF8DBC5B9D583D9767AD3C2699B03D836B96BD955A643D15979BBDFDAEF83CDC78F2BCE65E023D05B230BC753F5CBB33554B3D62DB043D4C3E94BD78DE3ABDA462DFBC87223BBD8710B1BCB0FBE73BE91A79BDA4FD89BAD702963D21A463BD53429C3D612F19BD0DBD92BDE2379A3DB3E66FBCCEF9C23C42FF69BDEA6666BDB7CF9BBCF269DDBCACCD95BC03112D3C62D169BCC6F64B3DB60D803D95D6AABD7483A7BD54ED12BD471D5BBD05F5053D89608ABD67A521BD65359EBD4B630DBDFB62933DC4DE8EBD9EDB123D9A315CBDE2EF07BDDD371B3DE2242A3D7FA2323CA921AC3DAF52033CD4CCA23CA05002BDBFA53C3D14F6753DAA1386BD835D3C3D2766423DEA0180BD56E294BCB9F2803DE5D44E3D95469CBDAFC741BDFAB368BB0583A0BD21AFA4BD352D983DDEBF973D0B025FBDDA16A93D8015263D410CA5BD029202BD897F6BBD56F1FA3C4303ADBD8365793C9AF4ACBDD0